{
    "ಚೆನ್ನೈ": 1388,
    "ನೆಲ್‌": 2132,
    "ಮಕ": 3104,
    "ಗೌರವಾ": 3802,
    "ಎದುರಿಸಲು": 4498,
    "ಂಟೀ": 2862,
    "ಿನ": 2026,
    "ಎಲ್‌": 1003,
    "ವ್ಯಕ್ತಿಯಿಂದ": 3958,
    "ಹಂಚಿಕೊಳ್ಳ": 2684,
    "ಎಂಟು": 2170,
    "ನೆಕಲ್": 1267,
    "ಗಮನಹರಿಸಲಿದೆ": 4203,
    "e": 54,
    "ಉತ್": 1154,
    "ತಂದೆಯನ್ನೇ": 4820,
    "ಞ": 93,
    "600": 2783,
    "ಆರೋಪಿಗಳು": 1679,
    "ಒಳಚರ": 4377,
    "ಒತ್ತಡ": 4500,
    "Met": 2814,
    "ಚ್ಚ": 1071,
    "ಅಂತರ": 2874,
    "ನೀಡಿದ್ದರು": 3623,
    "ಟಿ": 208,
    "ತ್ರಣ": 1625,
    "ಮಿಸಿದೆ": 3113,
    "ಪ್ರಕಟ": 1248,
    "ಿಸಲಿದೆ": 1298,
    "ದೊಂದಿಗೆ": 1955,
    "ವ್ಯಕ್ತಪಡ": 764,
    "20": 310,
    "ೇಕರ": 3265,
    "ಪ್ರಯಾಣದ": 3976,
    "ಕೋಟ್ಯಾ": 3583,
    "ಹೊರೆಯನ್ನು": 4177,
    "ಗಮನಿಸಿದ": 4201,
    "ಕಾಮಗಾರಿಗಳು": 4549,
    "ಂಕು": 992,
    "ಬಿಜೆ": 682,
    "ಮರ್": 3107,
    "ಯಾರ": 1205,
    "ರಾಜ್ಯಾದ್ಯ": 2253,
    "ಯಾಗಿದ್ದ": 3131,
    "ಸದನದಲ್ಲಿ": 3888,
    "ರುವುದ": 1105,
    "ಕೆಲ": 336,
    "30": 990,
    "ವರ್ಚುವ": 1627,
    "ದಾಖಲಿಸಲಾಗಿತ್ತು": 4148,
    "ಖ್ಯ": 866,
    "ವ್ಯಾ": 752,
    "ೆಯಾಗಿದ್ದು": 3404,
    "ತೋರಿಸುವಾಗ": 4461,
    "ಗೀತಾಳನ್ನು": 4650,
    "ಮುಂದುವರಿಸಲಾಗಿದೆ": 4880,
    "ಚುನಾವ": 3788,
    "ಂಟ್": 1437,
    "ಭಾವುಕರ": 3735,
    "ವಣ": 2000,
    "ಹತ್ಯೆ": 4723,
    "ಬೀಗ": 2415,
    "ಆಸ್ಪತ್ರೆಗಳು": 2359,
    "2023ರಲ್ಲಿ": 2382,
    "ಆಂಟಿ": 1873,
    "ಭಾಗವಹಿಸುವ": 2543,
    "ದುರ್ಘಟನೆ": 4329,
    "ಮಹಾಯುದ್ಧದ": 1824,
    "ನಡೆಯುವ": 1336,
    "ಹೇಳಿಕೆಯನ್ನು": 2291,
    "ಮುಂದುವರ": 2596,
    "ಮಹತ್ವದ": 2721,
    "ಟಲಿದೆ": 3002,
    "ಅವಧಿ": 2108,
    "ರಿಸಬೇಕಾಗುತ್ತದೆ": 3794,
    "ಜನರಲ್ಲಿ": 1621,
    "ಅಡೆನೊ": 4488,
    "ವಹಾರ": 1312,
    "ಸಾರ್ವಜನಿಕರ": 4370,
    "ನಾರ್ಹ": 2104,
    "ಪೋರ್‌ಬಂದರ್‌ನಲ್ಲಿ": 2732,
    "ನಾಟಕ": 539,
    "RRTS": 2637,
    "ಏಕ": 2929,
    "ಧೀ": 3042,
    "NIE": 2818,
    "ಎರಡರ": 3858,
    "ಅತಿಶಿ": 844,
    "ಪ್ರಯಾಣವನ್ನು": 2329,
    "ಲಾಗಿದೆ": 605,
    "ಠಾ": 1928,
    "ಆರೋಪಿಸಿ": 3680,
    "ಮೂಗು": 1289,
    "ವ್ಯವಸ್ಥೆಯು": 4848,
    "ವರ್ಚುವಲ್": 1822,
    "ೊಂದ": 379,
    "ಾರರ": 1550,
    "ಸುಪ್ರೀ": 935,
    "ಕ್ಯೂ": 2058,
    "ಕಡಿತಗೊಂಡಿದ್ದು": 2745,
    "ಾಗಿಸಿಕೊಂಡು": 3320,
    "ಅನು": 643,
    "ವೈದ್ಯ": 449,
    "ಗಿನ": 1628,
    "ಾಗಿದ್ದು": 806,
    "ಅಧಿಕಾರಿಗಳು": 1381,
    "ಏಕೆಂದರೆ": 2520,
    "ತ್ತು": 170,
    "ರ್ಪಡೆಯ": 3275,
    "ವಾನ್ಸ್": 3447,
    "ಮೂಲವು": 3786,
    "ವಿಸ್ತರ": 2533,
    "ರಚಿಸಲಾಗಿದೆ": 1991,
    "ಪೀಳಿಗೆಯ": 628,
    "ಸಂಸದ": 741,
    "ಐಸಿಜಿಯ": 4684,
    "ಂಟು": 1438,
    "ನಿರ್ವಹಿಸುವುದು": 2384,
    "ತಪ್ಪ": 1945,
    "ನ್ನರ": 3307,
    "ಟೆಸ್ಟ್": 2370,
    "ರಾಟದ": 978,
    "ಸಾಮರ್ಥ್ಯ": 2704,
    "ಜನಗ": 1620,
    "ಚರ": 2977,
    "ಕರಮ್": 3514,
    "ಿಸಿದಂತೆ": 1313,
    "ವಿಸ್": 1213,
    "Tejasvi": 2755,
    "ಮ": 108,
    "ಕಲ್": 382,
    "aja": 2833,
    "ಸ್ಪಷ್ಟ": 1089,
    "ಜಿನಿಯ": 2195,
    "ಬಿ": 210,
    "ವಿನಲ್ಲಿ": 3394,
    "ಟ್ಟ": 225,
    "ಸಂಬಂಧಿಸಿದಂತೆ": 1391,
    "ಬೆಂಗಳೂರಿನಲ್ಲಿ": 4570,
    "ತೆರ": 2186,
    "ಐಜ್ವಾಲ್": 2658,
    "ಅಂ": 642,
    "ವಾಗಿದ್ದರೆ": 2312,
    "ಂಟಿಯಾಗಿ": 2864,
    "ಓಡ": 1898,
    "ನಗರವನ್ನ": 3818,
    "ಿದೆಯೇ": 2037,
    "ಅಭಿನಂದ": 4052,
    "KS": 1431,
    "ಯಾಸ್": 2114,
    "et": 1843,
    "ಗಳಲ್ಲಿ": 312,
    "ದೇವಾಲಯದಲ್ಲಿ": 4563,
    "ಪರವಾಗಿ": 4298,
    "ಚಿಕ್ಕ": 1603,
    "ಹೊರಕ್ಕೆ": 4176,
    "ಇದರ": 1877,
    "ನಗರ": 369,
    "ಒಬ್ಬ": 1006,
    "ನೋ": 720,
    "ಮುಂಬರುವ": 2597,
    "ಲು": 201,
    "ಭೀ": 1199,
    "ನವ": 1187,
    "ರಾಮಜೀ": 3421,
    "ವೀರಪ್ಪನ್": 1423,
    "ಪೂರ್ವ": 3906,
    "an": 2832,
    "ವಾಗಿ": 292,
    "ಹರಡುವುದಿಲ್ಲ": 4217,
    "ೇಳ": 202,
    "ಮಹಾ": 832,
    "ತೆರೆದಿದೆ": 3646,
    "‌ನಲ್ಲಿರುವ": 4002,
    "ಸ್ಥರನ್ನು": 3670,
    "ೆಯು": 1063,
    "ಬೀಟಾ": 1366,
    "ಿಸಲಾಗುತ್ತ": 3709,
    "ಸ್ಪಷ್ಟವಾಗಿವೆ": 4341,
    "ಇತಿಹಾಸದಲ್ಲಿ": 4682,
    "ಅಭ": 494,
    "ಹಲವು": 1352,
    "c": 52,
    "ಆಕೆಯನ್ನು": 2891,
    "ಸ್ವಾ": 902,
    "ಮಾಡಿರುವುದನ್ನು": 3874,
    "ಬಂಗಾಳದ": 4793,
    "ಂಟಿ": 778,
    "ವರ್ಗದ": 3675,
    "ಅಶೋಕ್": 979,
    "K": 37,
    "ರಮೇಶ್": 1137,
    "ವಿಚಾರವಾಗಿ": 4004,
    "ಹಾಕಲಿದೆ": 4355,
    "ಪಾಯ": 3066,
    "ಹರೀ": 1221,
    "ತಟ್ಟ": 3020,
    "ರಾ": 175,
    "ನುವಿಕೆ": 3674,
    "ಚಾಮರಾಜನಗರದಲ್ಲಿ": 4881,
    "ಗಳಾಗಿದ್ದು": 3295,
    "ಗುಜರಾತ್‌": 4156,
    "ಮಿತಿಯ": 3702,
    "ಮಹಾನಗರ": 4181,
    "ಿಸುತ್ತ": 300,
    "LR": 2813,
    "ಗತಿಯಲ್ಲಿ": 2440,
    "ವರದಿಯಾಗಿದ್ದು": 4857,
    "Metro": 4935,
    "ವೈರಸ್": 395,
    "ನಿಲ್ದಾಣಕ್ಕೆ": 1698,
    "ಸ್ವಯಂಚಾಲಿತ": 4623,
    "ರಾದ": 3419,
    "ಇಂಗ್ಲಿಷ್": 4160,
    "ಹೇಮಾವತಿ": 4611,
    "ತೋ": 783,
    "p": 63,
    "ನ್ವಯ": 2049,
    "ಿದ್ದರು": 428,
    "ನಿರ್ಮಿಸಲು": 4779,
    "ಚಲ": 1173,
    "ಅಬುಜ್‌ಮದ್‌": 2756,
    "ಬದಲಾವಣೆಗಳನ್ನು": 2624,
    "ವತಿ": 3177,
    "ರಾಜಧಾನಿ": 3664,
    "ವಿಷಾದ": 4418,
    "ಡಲು": 1934,
    "ಎಚ್‌": 1347,
    "ಇಲಾಖೆಗಳ": 4262,
    "ಕ್ಕೀಡಾಗಿದ್ದು": 4432,
    "ಾಯಿಗೆ": 3579,
    "ಕಲ್ಯಾಣ": 1660,
    "ಇತ್ತೀಚೆಗೆ": 2619,
    "ವಾಗಿವೆ": 3706,
    "ಕಳೆದುಕೊಂಡ": 1690,
    "ನೇರ": 3746,
    "ತಿಳಿಸಿದರು": 1651,
    "<s>": 2,
    "ಫಲ": 1193,
    "ಲೂರು": 1995,
    "ಹೆಚ್ಚಿಸಲಾಗುವುದು": 2321,
    "ಪ್ರವೃತ್ತಿ": 2073,
    "ಪತ್ತೆಯ": 1119,
    "650": 2782,
    "ಗು": 245,
    "ರುತ್ತವೆ": 4123,
    "ಕುರಿತಂತೆಯೂ": 4836,
    "ಸಾಂಪ್ರದಾಯ": 1379,
    "ನಿರೀಕ್ಷಿಸಲು": 4738,
    "ೆಯನ್ನು": 507,
    "ಶಾ": 531,
    "ಕೋರ್": 544,
    "ೆಯೂ": 2091,
    "ಊರುಗಳಲ್ಲಿ": 4984,
    "್ರಾ": 342,
    "ರೈಲುಗಳು": 1686,
    "ಕ್ರಮವಾಗಿ": 2409,
    "ಮರುದಿನದವರೆಗೆ": 4302,
    "ಪವಿತ್ರಗೌಡ": 4514,
    "ತ್ತಿರುವ": 3316,
    "ಕ್ಕಾಗಿ": 1291,
    "ಆಗಮಿಸಿದ್ದಾರೆಂದು": 4254,
    "ಎಂಬುದು": 4566,
    "ತೊಂದರೆಗಳನ್ನು": 4896,
    "ರ್ಥಿ": 1721,
    "ರೈಲ್ವೆ": 1788,
    "ತಿಯೇ": 3712,
    "ಉಲ್ಬಣದ": 4472,
    "ಜಾರಿಯಲ್ಲಿದೆ": 4695,
    "ಆಯ್ಕೆಯ": 4957,
    "ಟಿಎಸ್": 2141,
    "ಹಣ": 662,
    "ಪರಿಶೀಲನಾ": 4812,
    "ಬ": 106,
    "ನ್ನಾಗಿ": 1051,
    "ಪಿಗ್ಮಿ": 2703,
    "ವಾರ್ಡ್": 2112,
    "ಜಿಲ್ಲೆಗಳ": 4232,
    "ನಾಗ": 878,
    "ಪೂಂಜ": 3907,
    "ವನ": 727,
    "ಪ್ರೀ": 739,
    "ಉಪರಾಷ್ಟ್ರಪತಿ": 4979,
    "ಚಾರ್ಲಪಲ್ಲಿ": 3934,
    "ಗಣ್ಯ": 2971,
    "ಕೌ": 1901,
    "ತಪ್ಪು": 4702,
    "ವ್ಯಕ್ತಪಡಿಸುತ್ತಿರುವ": 4154,
    "ಘಟನೆಗಳ": 4610,
    "ಛ": 91,
    "ವಿಶೇಷ": 1103,
    "ವಾರಿ": 3180,
    "ಆರೋಪಿಗಳನ್ನು": 3916,
    "KRTC": 1838,
    "ಮೇಲ್": 481,
    "ರಬಂದರ್": 1518,
    "್ಯದಿಂದ": 3350,
    "ಯಿತು": 4117,
    "ವುದೇ": 392,
    "ಿಕೊಂಡ": 545,
    "ವರೆಗೂ": 4523,
    "ಜಾಗುತ್ತ": 2990,
    "ಮಾದರಿಯಲ್ಲಿ": 4543,
    "ಯೋಜನೆಯಡಿ": 3717,
    "ro": 1143,
    "ಹೆಸರಿನ": 1358,
    "ೊಬ್ಬರು": 1540,
    "ಸ್ಪೆಷಾ": 2196,
    "ಗ್": 302,
    "ಗಳೊಂದಿಗೆ": 895,
    "ಮನೆಯಲ್ಲಿ": 2219,
    "ನಿಲ್ದಾಣಗಳೊಂದಿಗೆ": 2344,
    "Tejasv": 2638,
    "ಾಗಿರುವುದು": 3457,
    "ಇದ": 592,
    "ತಗು": 1942,
    "ಪೊಲೀಸರ": 2256,
    "ಮಾರ್ಚ್": 2246,
    "ದ್ರಾ": 3034,
    "ಇಂಜಿನಿಯರ್": 2736,
    "ಕಿತು": 3542,
    "ಮೇಲ್ನೋಟಕ್ಕೆ": 2727,
    "ವಿರೋ": 908,
    "ಮತ್ತೊಂದು": 4303,
    "ಗಳಿಂದಾಗಿ": 4449,
    "ನ್ನೆ": 736,
    "ಸ್ಯ": 1559,
    "ಕೆಜಿ": 2066,
    "ಂಡ್": 3505,
    "ಅಬು": 1861,
    "ಬೊ": 1969,
    "ಜುಲೈ": 2575,
    "ಚಿನ್ನಾಭರಣ": 1710,
    "ಿದ್ದಾಗಿ": 3345,
    "ಕಾಲದ": 3427,
    "ಮಂಜು": 3852,
    "ವ್ಯವ": 1090,
    "ಾರಂಭ": 667,
    "ಹೊಂದಿದೆ": 2425,
    "ಲಿಂಗ": 3503,
    "ಜಿಯಾಬಾದ್": 3690,
    "d": 53,
    "ಮಗಳನ್ನು": 1506,
    "ಏರಿಕೆ": 1372,
    "ಸಿಕ್ಕಿ": 3474,
    "ವಿಚಾರಗಳ": 4003,
    "ಸಂಸ್ಥೆಗೆ": 4750,
    "ಗಮನ": 869,
    "ಪ್ರಾಥಮಿಕವಾಗಿ": 4847,
    "ಕುಸಿದುಬಿದ್ದು": 4909,
    "ಯಿರಿ": 2396,
    "ಕುಸಿದ": 2151,
    "ಅಂತಸ್ತು": 2518,
    "A": 28,
    "ಸ್ಥಳೀಯ": 1330,
    "ಿಸಿರುವ": 2193,
    "ತಡರಾತ್ರಿ": 4507,
    "ಒಪ್ಪಿಕೊಂಡ": 2570,
    "3ನೇ": 2773,
    "ಉದ್ದೇಶ": 1757,
    "ಲಾಂಗ್": 3635,
    "ಬೇಡಿಕೆ": 841,
    "ಬೆಳಗ್ಗೆ": 1722,
    "ಕೆಆರ್": 2065,
    "ತಂದೆಯ": 2391,
    "ಎಂಬುವರೇ": 4567,
    "ಚಿನ್ನಾಭರಣಗಳನ್ನು": 4604,
    "ವಿಸ್ತರಣೆ": 4855,
    "ಖಾ": 1010,
    "ಿಸಿಕೊಳ್ಳುವುದು": 4409,
    "ಕರೆಸಿದಾಗ": 4289,
    "ಐಸಿಜಿ": 4683,
    "ಹಿಂದ": 1283,
    "ಬ್ಬ": 295,
    "ಹೋಗುವ": 1131,
    "ಪರಿಷ್": 1693,
    "ಕ್ಕೆ": 209,
    "ದಿಗಳನ್ನು": 3465,
    "ಕಾವೇ": 912,
    "ಲೀ": 320,
    "ರಕ್ಷ": 1987,
    "್ಯಗಳನ್ನು": 3348,
    "ಗಳನ್ನೇ": 3296,
    "ಧಿಕರಿಗೆ": 3881,
    "ಮನೆಗೆ": 4304,
    "ಗಮ": 1908,
    "ನೀಡಿದ್ದಕ್ಕೆ": 3627,
    "AR": 2795,
    "ಕೆಲವು": 940,
    "ಟ್‌ವೇ": 3758,
    "ಯಿಂದ": 1719,
    "ಕರಣ": 275,
    "ಇತ್ಯಾ": 2908,
    "ಅಧ್ಯಯನ": 4487,
    "ಷರತ್ತು": 3206,
    "ಪಡೆ": 578,
    "ಕಾನ್ಫರೆ": 2595,
    "ಸುವುದಿಲ್ಲ": 3724,
    "ತಗೊಂಡ": 1488,
    "ಮೀರದ": 3654,
    "ಕಾರಣವೆಂದರೆ": 4093,
    "ಕಾರ್ಯಾಚರಣೆಗಳು": 4360,
    "ಕಲೆಕ್ಟರ್": 2662,
    "ಸಂಕಿರ್ಣ": 2696,
    "ಮೋ": 361,
    "ಮಂಗಳ": 3110,
    "ಮೂಗನ್ನು": 3641,
    "ಸುರಕ್ಷ": 3721,
    "ಪಾಸಿಟಿವ್": 1823,
    "ಲಾಗುವುದು": 3164,
    "ಭರವ": 3103,
    "ಸಾಮಾನ್ಯವಾಗಿ": 4265,
    "ಟಿಫಿ": 3522,
    "ಯಲಹಂ": 1813,
    "ಪೀ": 332,
    "ಜೇಶ್": 2994,
    "ಅನಾರೋಗ್ಯ": 1800,
    "ರಿದೆ": 3140,
    "ಭ": 107,
    "ವಾರಗಳಲ್ಲಿ": 3812,
    "ವಿಚಾರಿಸಿದಾಗ": 4007,
    "ಕಾಣುತ್ತಿದ್ದು": 4422,
    "ತಮ್ಮನ್ನು": 3879,
    "ಗಿಳಿಯುವ": 3681,
    "ಗಳಿ": 445,
    "ಪಲ್ಲಿ": 3062,
    "ಕೊಠಡಿಗಳನ್ನು": 4764,
    "ಆರಂಭವಾಗಿದ್ದು": 4104,
    "ಬಂಧಿಸುವುದಕ್ಕೆ": 4050,
    "ರ್ಜಾಲ": 3277,
    "ುವಾಗ": 2118,
    "ಎಲ್ಲ": 595,
    "ಸಹ": 503,
    "ಅರ್ಜಿಯ": 2516,
    "ತೊಳೆಯ": 4509,
    "ಕೀಯ": 458,
    "ಹೇಮಾ": 1732,
    "ಮುಚ್ಚ": 3535,
    "ನಕಲ್": 3055,
    "ಕಾವಲು": 3428,
    "ಹೇಳಿಕೆಗಳ": 3979,
    "ಪತನಗೊ": 1966,
    "ಿಸಬೇಕಿದೆ": 3304,
    "ಅಕ್ಟೋ": 4947,
    "‌ವರೆಗೆ": 2035,
    "ಪ್ರವಾಸಿಗರ": 1713,
    "ಅಹ": 1857,
    "ಕರ್ನಾಟಕವನ್ನು": 2335,
    "ಭಾರತದಲ್ಲೂ": 3857,
    "ಟೇ": 1925,
    "ಚಿನ": 541,
    "ುತ್ತವೆ": 3434,
    "ವಾತಾವರ": 1819,
    "ಹರಡುವಿಕೆ": 4216,
    "ಧು": 464,
    "ದಾಗಿದೆ": 1184,
    "ಪ್ರಧಾನಿಯವರು": 2301,
    "ಒಪ್ಪಿಕೊಂಡರು": 4868,
    "ಲಿಟಿಯ": 3500,
    "ಂಡಿದ್ದು": 2134,
    "ರಿನಿಂದ": 3367,
    "ಘಟನೆಯ": 4162,
    "ತ": 99,
    "ಹದ": 1530,
    "ಜನರು": 926,
    "ಲಕ್ಷಣಗಳನ್ನು": 2285,
    "ಮಧ್ಯಮ": 4170,
    "ಡಗಿದ್ದ": 1935,
    "ಬಹಳ": 3095,
    "ಆತ್ಮಹತ್ಯ": 771,
    "ಮುನ್ನೆ": 2154,
    "ಯುಗ": 1652,
    "ರಿಸ": 350,
    "ಾಗುತ್ತಿದೆ": 2238,
    "ಣವಾಗಿ": 3015,
    "ಅವಳು": 3440,
    "ಘಾತಕ್ಕೀಡ": 4242,
    "Ge": 2804,
    "ಂದರೆ": 1231,
    "ತುತ್ತ": 3019,
    "sv": 1849,
    "ವಾಗಬಹುದು": 3943,
    "ದಿರುವುದು": 3468,
    "ವಿಶಾಲ": 1668,
    "ಸು": 298,
    "ಪ್ಪಿದ್ದಾರೆ": 3846,
    "ತನ": 526,
    "ಂದಿನ": 828,
    "ಅಂಶಗಳಿವೆ": 2471,
    "ನಕ್ಸಲ್": 1705,
    "ಪರಿಶೀಲಿಸಲಿವೆ": 4813,
    "ಹಾಕಲು": 4353,
    "HMPV": 770,
    "ಪಾಸ್": 2226,
    "ದಶಕ": 2669,
    "ಚೌ": 2978,
    "ನೆಚ್": 2131,
    "ಅಕ್ಕಪಕ್ಕ": 4948,
    "ಅಹ್ಮದಾಬಾದ್": 4955,
    "ಹೆಚ್ಚು": 751,
    "ಪ್ರಾಧಿಕಾರವಾ": 4319,
    "ಯಾಣ": 446,
    "ನಡೆಯಿತು": 1682,
    "ಒಡಿಶಾ": 4996,
    "ಬಗ್ಗೆ": 564,
    "ಲೋ": 500,
    "ಅರ್ಜಿದ": 2517,
    "ಬ್ರೌಸರ್": 2395,
    "ತಪಡ": 598,
    "ಪತ್ತೆಯಾಗಿರುವುದು": 4361,
    "ಕಲಕುವಂತಿದೆ": 2749,
    "ಕಳೆದುಕೊ": 3990,
    "ಮಂಡಿಸಿದ್ದರು": 2275,
    "ಆಸ್ಪತ್ರೆಯ": 2427,
    "ಗಾರ": 2963,
    "ಕೇಳಿದ": 2482,
    "ಉದ್ಘಾಟ": 638,
    "ಿಕೊಳ್ಳಲಾಗಿದೆ": 3962,
    "ಗೋಲ್ಡ್": 4112,
    "ತವಾಗಿ": 1486,
    "ಸಫಾರಿಯನ್ನು": 4120,
    "್ಯಾರ್ಥಿ": 2378,
    "ಮಧ್ಯರಾತ್ರಿಯಿಂದ": 2737,
    "ಕ್ಕಿ": 737,
    "ವಯಸ್": 2532,
    "ಜಾಗತಿಕ": 1401,
    "ನಿಕ": 672,
    "ಇಲ್‌": 2903,
    "ಪ್ರತಿಯ": 3360,
    "ಕಾರ್ಯಕ್ರ": 3761,
    "ಹೃದಯಾಘಾತದಿಂದ": 4368,
    "ಕೋಟಿಯ": 3582,
    "ರಹಿತವಾಗಿ": 4522,
    "ಾಯಕವಾಗಿ": 1611,
    "ಕಾಮಗಾರಿಗಳನ್ನು": 4548,
    "ಆರ್ಥಿಕತೆಗೆ": 2426,
    "ಸಂಚರಿಸುವ": 4748,
    "ಐಜ್ವಾಲ್‌ನ": 4890,
    "ಪಡೆದಿದ್ದ": 2614,
    "i": 57,
    "ಹಿ": 243,
    "ಬಿಎಂ": 2143,
    "ರಂಗೇ": 3153,
    "ವಾಗಿರಲಿಲ್ಲ": 3707,
    "ತರಲಾಗಿದ್ದು": 3805,
    "ದುಹೈ": 3455,
    "ಚೀ": 870,
    "ವಿರ": 1060,
    "ನೆಗೆ": 1266,
    "ಟೀ": 1175,
    "ಅಲಿ": 1858,
    "ಮಾತ್ರವಲ್ಲದೆ": 4541,
    "ಆರ್‌ಆರ್‌": 4340,
    "ಪ್ರಯಾಣಿಕರು": 4453,
    "ಸವಾ": 1529,
    "ಅವರಿಗೆ": 813,
    "ನ್‌ನಿಂದ": 4079,
    "ಜನರೇಷನ್": 848,
    "ುತ್ತಿದ್ದಾರೆ": 812,
    "ದೂ": 559,
    "ಯಲು": 3122,
    "ಲಗೆ": 3156,
    "ಯಾದವ್": 4746,
    "ತೆಲಂಗಾಣದ": 4914,
    "ಇತ್ಯಾದಿಗಳನ್ನು": 4974,
    "ಒತ್ತಿಹೇಳಿದೆ": 4997,
    "ಮಾರ್": 354,
    "ರವಿ": 3139,
    "ಶಿಕ್ಷಕರಾಗಿದ್ದರು": 4137,
    "ನ್ನೂ": 735,
    "ತಂತ್ರಜ್ಞಾನಗಳು": 4462,
    "ಕನ್ನಡಕ್ಕೆ": 3823,
    "ಹಂಚಿಕೊಳ್ಳಬೇಡಿ": 4903,
    "ನೀಡದೆ": 2177,
    "ಕೇಂದ್ರದಲ್ಲಿ": 2410,
    "ನಂತರ": 561,
    "ುವವರ": 2119,
    "ತಡ": 1481,
    "ರೆಹೊರ": 3480,
    "ವೇಯಲ್ಲಿ": 3779,
    "ಯಾ": 184,
    "ತೆ": 256,
    "ನಗರದಲ್ಲಿ": 2254,
    "ಯಿ": 724,
    "ಹೀಗಾಗಿ": 1783,
    "ಇಬ್ಬರು": 1000,
    "ಕಾರ್ಯಾಚರಣೆಯಲ್ಲಿ": 2617,
    "ಕೆಗೇಡಿನ": 2686,
    "ಪೂ": 465,
    "ಲುಯೆ": 1598,
    "ರುವುದು": 950,
    "ಆರೋಗ್ಯ": 380,
    "ಒತ್ತಿ": 2940,
    "ಜನಿಸಿದ": 3610,
    "ಬಿಟ್ಟುಕೊಡಲು": 4756,
    "ಚೋರ": 2443,
    "ನ್ನು": 157,
    "್ಯಗಳಿಗಾಗಿ": 2063,
    "ಕಾಕ್": 2096,
    "ಪ್ರಯಾಣ": 537,
    "ಹೆಚ್ಚಳವಾಗಿದೆ": 4586,
    "ಪಾಠ": 3749,
    "ಸಾವು": 1608,
    "ಠಾಣೆಯ": 4697,
    "ಬೇಡಿ": 509,
    "ಂಪ್": 2851,
    "ಿದರೆ": 3259,
    "12": 988,
    "ಧಿಗಳನ್ನೇ": 3905,
    "ಔತಣಕೂಟ": 4649,
    "ರಿನಲ್ಲಿ": 1569,
    "ಎರಡನೆಯ": 2271,
    "ತಿ": 164,
    "ವಿಧಾನಸಭಾ": 4907,
    "Beta": 4928,
    "ನಿರ್ಮ": 2229,
    "ಾಧಿಕಾರಿ": 3235,
    "ತನಿಖೆಯ": 4073,
    "ಕಾರ್ಡ್": 4008,
    "ೆಯಲ್ಲಿ": 306,
    "Te": 1841,
    "ರೈಲು": 515,
    "3": 18,
    "ಜಲ": 1917,
    "ದಾನಕ್ಕೆ": 3650,
    "ಹೆಚ್ವಳವಾಗಿದ್ದರೆ": 3685,
    "ಓಡುವ": 4685,
    "ಕಷ್ಟು": 2954,
    "ಾರಿಯ": 617,
    "ಹೆಂಚುಗಳನ್ನು": 4752,
    "ಮೂವರೂ": 4768,
    "ಐಸಿ": 1891,
    "ಮಂಡಿಸಿದ": 1321,
    "ಐಆರ್": 1460,
    "ವಲು": 1523,
    "ರನೇ": 3146,
    "ರೋ": 216,
    "ಮಾರ್ಗಕ್ಕೆ": 4344,
    "ಬ್ರಿಜೇಶ್": 4823,
    "ಏಕೈ": 2933,
    "ತೆಲಂಗಾ": 2709,
    "18": 989,
    "ಸೂರು": 1040,
    "ತಿಳಿದುಕೊಳ್ಳಲು": 4363,
    "CMR": 1429,
    "ದೆಹಲಿಯಲ್ಲಿ": 2290,
    "ವೆಯ": 3178,
    "ಆರೋಪಿಯಾಗಿರುವ": 3917,
    "ದ್ದರಿಂದ": 1634,
    "ಕಾರ್ಯಕ್ಷಮ": 3764,
    "ವೈ": 238,
    "ವಕೀಲ": 1408,
    "ಬೆಳೆ": 2158,
    "ಯಾವುದೇ": 393,
    "ಸಿಸ್ಟರ್": 2535,
    "ಮುರಿಯ": 3536,
    "​": 128,
    "ಕೋಟ್ಯ": 3584,
    "ಬಿಡು": 3527,
    "ಒತ್ತಾಯಿಸಿದ್ದು": 4866,
    "ರಾಭಿ": 2095,
    "ಪೈ": 3063,
    "ಂತ": 189,
    "2039ರ": 4777,
    "gar": 2836,
    "ವೈರಸ್‌ಗಳು": 3840,
    "ಹೈ": 664,
    "ತೆಗಳಿವೆ": 3645,
    "ಜನಿಸಿದೆ": 2175,
    "ನಾರಾಯಣಪುರ": 4842,
    "ನೆರೆಹೊರ": 3496,
    "ಯವರ": 1513,
    "ಸವನ್ನು": 3215,
    "ಛಾ": 2983,
    "ಸಿಟಿ": 1593,
    "ಉಲ್ಬ": 1399,
    "ತಂಡ": 1018,
    "ಮುಖ್ಯಮಂತ್ರಿಯವರ": 3925,
    "ಜಾಗತಿಕವಾಗಿ": 4473,
    "ಚರ್ಚಿಸಲು": 4688,
    "ಿಂಡ": 3240,
    "Gen": 4929,
    "ವುದು": 3408,
    "ಭಾರತ": 414,
    "ಧ್ರುವ್": 2671,
    "ಉದ್ಯ": 2917,
    "ತನ್ನ": 874,
    "ಾಚನೆಗೆ": 3236,
    "ಮಕ್ಕಳಲ್ಲಿ": 4347,
    "ತಲೆ": 3023,
    "ನೀಡಿಲ್ಲ": 2352,
    "ಶು": 1037,
    "ಐಜ್ವಾಲ್‌ನಲ್ಲಿ": 4891,
    "ತೆಲಂಗಾಣ": 4913,
    "ದಾಳಿ": 3647,
    "ರವರ": 1988,
    "ವಾಯುಸೇನೆ": 4745,
    "ಆರ್": 266,
    "ವ್ಯವಸ್ಥೆ": 1763,
    "ಕರೆತಂದು": 2481,
    "ವಾಲಾ": 3446,
    "ೃ": 122,
    "ತಿಂಗಳು": 1252,
    "ಿಸಿದ": 365,
    "ಮಡಿಕೇರಿ": 4709,
    "ತೇಜಸ್": 550,
    "ವಾಗಿದ್ದು": 1334,
    "di": 2834,
    "ಪ್ರಕರಣಗಳಲ್ಲಿ": 1304,
    "ಕಳೆ": 555,
    "ಚೆಗಳ": 4291,
    "ತರಬೇತಿ": 1655,
    "ಪಠ್ಯ": 3072,
    "ಮೆಚ್ಚು": 1308,
    "ಮೀನಿನ": 3656,
    "ನಕ್ಸಲ": 973,
    "್ಧ": 1225,
    "ಮತ್ತು": 174,
    "ಸಂಬಂಧ": 1068,
    "ಬೇಕು": 430,
    "ವಾಸಿಯಾಗಿದೆ": 3978,
    "ಮರುರೂಪಿಸುತ್ತಾರೆ": 4301,
    "ಏಳು": 1158,
    "ಇಂಟರ್ನೆಟ್": 2618,
    "ಫ್ಲುಯೆ": 1695,
    "ನೋಟ್": 2392,
    "ಅವಿರ": 1864,
    "7": 22,
    "R": 43,
    "ಜಿಲ್ಲೆಯ": 2457,
    "ಮಧ್ಯೆ": 4171,
    "ಸಂಖ್ಯೆ": 4225,
    "ಪತ್ನಿ": 1403,
    "ಟಿಸ್": 1927,
    "ನೀಡುವಂತೆ": 2179,
    "ಸಲಾ": 3214,
    "ಕೆಗೆ": 3353,
    "ಆಗಮಿಸಿವೆ": 4616,
    "ರೂಪ": 399,
    "ಕಾಳಗದಲ್ಲಿ": 3431,
    "ದಕ್ಷಿ": 1492,
    "ಆಕೆಗೆ": 4677,
    "ದಿಲ್ಲ": 916,
    "ಕಿಲೋಮೀಟರ್‌ಗಳವರೆಗೆ": 2550,
    "10": 589,
    "ಪಡೆಗಳು": 4011,
    "ಠಡಿ": 1929,
    "ಕ್ರ": 456,
    "ಎಲ್ಲವೂ": 4026,
    "ನ್ಯ": 389,
    "ರೇಣು": 1659,
    "ತ್ರಗೌಡ": 3643,
    "ಜು": 1476,
    "ಬೆಳೆಸಿಕೊಳ್ಳಬೇಕು": 4763,
    "ದಯಾ": 1019,
    "ಗ್ರ": 460,
    "ಪರಿಸ್ಥ": 977,
    "ಘಟನೆ": 1728,
    "ನಿರ್": 321,
    "ಶೀಲ": 1696,
    "ಐಡಿ": 2935,
    "ಜಾಮೀನು": 697,
    "ವಳವಾಗಿದ್ದರೆ": 3190,
    "ನಡುವಿನ": 1419,
    "ಗಾಂಡ್": 3827,
    "ತಿಯೊಬ್ಬರು": 3713,
    "ಾಗಿತ್ತು": 1263,
    "ವಿಶೇಷವಾಗಿ": 1767,
    "ವಾ": 182,
    "ಏ": 81,
    "ನಿರ್ಧರಿಸಲಾಗುತ್ತದೆ": 4780,
    "ಸಾಧ್ಯವಾದಷ್ಟು": 4429,
    "ನೆಯಲ್ಲಿ": 1494,
    "ವಯಸ್ಸಾಗಿದೆ": 4854,
    "ಾರಿಯನ್ನು": 4043,
    "ವರ್ಷದ": 1664,
    "ಷನ್": 797,
    "ಂಚು": 1854,
    "ಶೋಗೆ": 3887,
    "ತೂಕವ": 2578,
    "ಮರ್ಥ": 1982,
    "ಮಾಧ್ಯಮಗಳಲ್ಲಿ": 4656,
    "್ಯಕರ": 3349,
    "ಮೇಲ್ಮನವಿ": 1108,
    "ಳೆ": 378,
    "ತಿಹಾಸ": 1414,
    "ರ್‌": 1229,
    "ಸಮಾಜವನ್ನು": 2558,
    "ಖಚಿತಪಡ": 2663,
    "ಸಚಿವರು": 3871,
    "ಆಯೋಜಿಸಿದ್ದ": 2646,
    "ರೋಹಿ": 3540,
    "ಹೊರ": 822,
    "ಹೇಗಾದರೂ": 2420,
    "ನ್ಯಾ": 1230,
    "ಉಳಿದ": 1455,
    "ನಿಂದಿಸದೆ": 3835,
    "ಮನಸ್ಥಿತಿಯ": 3732,
    "ಹೋಮ್": 4036,
    "ಸಂಸ್ಥೆಗಳು": 4426,
    "ನಗರಾಭಿವೃದ್ಧ": 2713,
    "ಕಾರ್ಯನಿರ್ವಹಿಸಿರುವುದು": 4238,
    "ಸಫಾರಿಯು": 4186,
    "ಕ್ಸ್": 3328,
    "ಅಗತ್ಯ": 1398,
    "ಕಾವೇರಿ": 983,
    "ಕರ್ಯ": 1904,
    "2013": 3738,
    "ಸದಸ್ಯ": 2288,
    "ಕಲಾ": 2950,
    "ಹಿಂದಷ್ಟೇ": 4431,
    "ೇಶ": 1542,
    "ಪರಿಸ್ಥಿತಿಯನ್ನು": 1772,
    "ರೂಪಾಯಿವರೆಗೆ": 2305,
    "ಜ್‌ಮದ್": 2605,
    "ನಿರ್ಮಿಸಿದ್ದಾರೆ": 4778,
    "ಗಳಿಗಾಗಿ": 1329,
    "ವಸತಿಗಾಗಿ": 4901,
    "ಾಗಬೇಡಿ": 2057,
    "ಸ್ಥಳದಲ್ಲಿ": 3893,
    "ಚಿತ್ರದುರ್ಗದ": 4560,
    "ಸೌತ್": 1687,
    "ಚಿತ": 2149,
    "ಆರ್ಥಿಕ": 826,
    "ಹರಿಸಲಿದೆ": 3231,
    "ಮೇಲೆ": 827,
    "ನಡುವಿ": 1287,
    "ಾರವಾ": 3299,
    "ಚಕಮಕಿ": 1807,
    "ಕೇರಿ": 3988,
    "ದನ್ನು": 718,
    "ನಾಲಗೆ": 3438,
    "ಪ್ರದೂಶ್": 4728,
    "ಊ": 78,
    "rinate": 4670,
    "ಮೆಟ್ರ": 625,
    "ಮೃತಪಟ್ಟಿದ್ದಾರೆ": 1382,
    "ನೀಡಲಾಗಿದೆ": 1623,
    "ಪರ್": 599,
    "ಂತರ": 413,
    "ಕ್ಷೇ": 577,
    "ಆತನ": 2889,
    "ಹೆಚ್ಚಿದೆ": 3956,
    "ಉದ್ಘಾಟಿಸಿದರು": 2366,
    "ಗೇ": 495,
    "ವ್ಯಕ್ತಿಯೊಬ್ಬರು": 3959,
    "ನಾಲ್ಕು": 1744,
    "ಜಗದ": 1478,
    "ಮೀ": 259,
    "ದೃಢ": 982,
    "ಿಸಿಕೊಂಡಿದ್ದಾರೆ": 1743,
    "ಇಂ": 779,
    "ನಿಯಲ್ಸ್": 4544,
    "ವ್ಯಕ್ತಪಡಿಸಿದ್ದು": 4152,
    "BWSSB": 4927,
    "ವೋ": 3176,
    "ಕರಾಗಿದ್ದರು": 3517,
    "ಶಿಶು": 3667,
    "ಭಾರತದಲ್ಲಿ": 1104,
    "ತಪ್ಪಿಸಿದ": 4703,
    "ರಿಸುವ": 3793,
    "ನಕ್ಸಲರ": 4263,
    "ೆ": 123,
    "ೋ": 148,
    "ಸ್ವ": 1053,
    "ಪಡೆದ": 1697,
    "ಜನಪ್ರತಿನಿಧಿಗಳು": 3613,
    "ಳವಾಗಿದ್ದರೆ": 3170,
    "ವೈದ್ಯರ": 2292,
    "ಗಟ್ಟ": 2967,
    "ಸೂ": 386,
    "ೃಷ್ಟ": 1537,
    "J": 36,
    "ಪಿನಾಥ": 1607,
    "ಗಿಸಲು": 1911,
    "ಸ್ತ": 2059,
    "ಂಟ": 2844,
    "ಪರಿಸ್ಥಿತಿಯ": 1132,
    "ಸಾಧ್ಯವಿಲ್ಲ": 4427,
    "ಜಲಪಾತವು": 4894,
    "ಮೂವರ": 2184,
    "ಹೊಂದಿಕೊಳ್ಳುವ": 4180,
    "ಮಹಿಳೆಯೊಬ್ಬ": 4358,
    "ಸ್ಪರ್ಶ": 2197,
    "ಉಲ್ಬಣ": 1797,
    "ಕೆನ್ನೆಗೆ": 3357,
    "ಯೋಜಿಸಿದೆ": 3920,
    "ದರ್": 560,
    "ಕೇಂದ್ರ": 765,
    "ದಟ್ಟ": 1954,
    "ಯಾರನ್ನೂ": 4401,
    "ಬೇಡಿಕೆಗಳಿಗೂ": 4185,
    "ಪರಿ": 562,
    "ವಂಚನೆ": 1122,
    "ಲ್ತಾ": 2045,
    "ಯಕ್": 3120,
    "ೀರ": 1234,
    "ಾಗಬೇಕು": 2056,
    "ಳಿದ": 530,
    "ಸಿದ್ಧ": 1340,
    "ಆರೋಪಿಗಳಾದ": 2609,
    "ಜನರನ್ನು": 3611,
    "ೆಸ್": 1046,
    "ವಾಗಿರಬೇಕು": 3708,
    "ಬಿಂಬಿಸುವ": 4557,
    "ಥಿಕ": 784,
    "ಸ": 116,
    "ಡೆ": 597,
    "ಟ್ವೀ": 3407,
    "ದೊ": 1952,
    "ದೇವಾಲಯದಲ್ಲೂ": 4565,
    "ಅವಧಿಯಲ್ಲಿ": 2694,
    "ಬದಿ": 1971,
    "ಡಿ": 173,
    "ನೀಡುವಲ್ಲಿ": 4338,
    "ಡಲ್": 3006,
    "ಜೆಎಸ್": 3587,
    "ಡಿಎಲ್‌": 3415,
    "ಕಾರ್ಯಕ್ರಮಗಳಿಗೆ": 4241,
    "ಸ್ಮಾರ್": 3338,
    "ಹಲವೆಡೆ": 2377,
    "ಜಿಪುರ": 3688,
    "ದಂತಚೋರ": 4512,
    "ರಣ": 499,
    "ಮತ": 3105,
    "ಬಂದ": 404,
    "ರೈಫಲ್": 2209,
    "SAR": 2824,
    "ಮ್ಮಸಂದ್ರ": 3741,
    "ಕ್ಷತೆಯಲ್ಲಿ": 2147,
    "ಫಲಕ": 2528,
    "ವರಿಗೆಲ್ಲ": 4524,
    "ಮರು": 1027,
    "ವಿವರಿಸಿದರು": 2538,
    "Googl": 2635,
    "ದಿನದವರೆಗೆ": 4084,
    "ಇಟ್ಟ": 1449,
    "ಕೆಲಸವನ್ನು": 1723,
    "ೕ": 126,
    "ಜಿ": 276,
    "ಂದಿಗೆ": 3288,
    "ಸ್ಟ್ಯಾಂಡರ್ಡ್": 1815,
    "ಸ್ಥಿತಿಯಲ್ಲಿ": 2504,
    "ದಂತೇವಾಡ": 4513,
    "ಮೃತಪಟ್ಟಿದ್ದಳು": 4259,
    "ಪಶ್": 1191,
    "ಿಸಲಾಗಿದೆಯೇ": 3711,
    "ಸ್ವಾವಲಂ": 4221,
    "ಸ್ಥಳಾಂತರ": 3897,
    "ವರ್ಷಗಳ": 1665,
    "ರಿನ": 615,
    "ಭಾನುವ": 1302,
    "ವರಿಷ್ಠ": 3869,
    "ಗರು": 2962,
    "ಶನ್": 3195,
    "BM": 2797,
    "ಐತಿಹಾಸ": 1895,
    "ಇಟ್ಟುಕೊಂಡಿದ್ದಳು": 4886,
    "ಮಹಾಯುದ್ಧ": 1653,
    "ಭಾಷೆಯನ್ನೂ": 4248,
    "ಸವಾಲಿನ": 4531,
    "ಎಂಬು": 1617,
    "ಇನ್ಫ್ಲುಯೆನ್": 2739,
    "ಎಂದು": 179,
    "ಸಿದ್ದಾಪುರದಲ್ಲಿ": 1747,
    "ಚಾಲನಾ": 1750,
    "ಸಾಮರ್ಥ್ಯವಿರುತ್ತದೆ": 4912,
    "ೃಹ": 2029,
    "ಜಮಾ": 2987,
    "ಹ್ಯೂಮನ್": 2683,
    "ಬಿಟ್ಟು": 2145,
    "ೇಜನ": 3266,
    "ರೊಳಗೆ": 2531,
    "ಇತ": 2897,
    "NCD": 2817,
    "ಹೊಂದಿಸುತ್ತೇವೆ": 4179,
    "ಗಮನಿಸುತ್ತಿದೆ": 2441,
    "ಿಕೊಳ್ಳ": 517,
    "ತ್ಯಾ": 2039,
    "ಇಳಿಯುವ": 2910,
    "ನಡೆಸಿದ್ದರು": 3843,
    "ಛತ್ತೀಸ್ಗಢ": 4505,
    "ಜ್‌": 1658,
    "ಸಂಬಂಧಪಟ್ಟಂತೆ": 4331,
    "ಜಿಲ್ಲಾಡಳಿ": 4613,
    "ಏಳಿಗೆಗಾಗಿ": 4991,
    "ಮೇರೆಗೆ": 1638,
    "ಪಟ್ಟಂತೆ": 4075,
    "ಟು": 650,
    "ಯ್ದ": 3119,
    "್ಯುತ್": 3352,
    "ಆಕರ್ಷಿಸಲು": 4641,
    "ದಲೈಲಾಮಾ": 1124,
    "ಸಹೋದರಿ": 3944,
    "ನಡೆದಿದೆ": 2406,
    "ಟ್ಟಿ": 1257,
    "ಪತಿ": 787,
    "ಪರೀಕ್ಷಿಸಿದ": 4393,
    "ಅಭಿವೃದ್ಧ": 969,
    "ಛತ್ತೀಸಗಢ": 2574,
    "ತಗುಲಿರುವುದು": 4700,
    "ಧಿಕ": 436,
    "ಬ್ಯಾಪ್ಟಿಸ್": 4520,
    "ಹಣಕಾ": 2374,
    "ಸಂಚಾರ": 2125,
    "ಂತಿಕ": 2860,
    "ಪತ್": 1190,
    "ಠಾಣೆಗೆ": 4696,
    "ಉದ್ಘಾಟನೆಯೊಂದಿಗೆ": 4817,
    "ಅಥ": 551,
    "‌ಗಳು": 1227,
    "ಧರ್ಮಸ್ಥಳ": 1384,
    "ಧದ": 3041,
    "ಪೀಠವು": 4343,
    "ಬಾರಿ": 1196,
    "ಇರುವ": 1153,
    "ಆಸ್ಪತ್ರೆಗೆ": 1333,
    "ಲ್ಡ್": 2046,
    "ಫ್ರಾ": 3077,
    "ದಾಣ": 580,
    "ಪ್ರವೇಶದ್ವಾರ": 4905,
    "ದಲೈ": 835,
    "ಕೋರ್ಟ್‌ನಲ್ಲಿ": 4811,
    "ಭಯಪಡುವ": 1780,
    "ದುರ್ಘಟನೆಯಲ್ಲಿ": 2496,
    "ಹೋಗಿ": 4037,
    "ತೀವ್ರ": 698,
    "ನ್‌ಲೋಡ್": 4080,
    "ವಾತಾ": 1589,
    "ಮುಖ್ಯಮಂತ್ರಿಗಳಿಗೆ": 3924,
    "ಔಟ್‌": 1899,
    "ದೇವ": 3588,
    "ಠ್ಯ": 3003,
    "ಕಿಂಗ್": 2157,
    "ಲಮ್ನಾ": 2680,
    "ರೀ": 423,
    "ಸರಿಗೆ": 3218,
    "ಕಷ್ಟ": 1905,
    "ತೆಲಂ": 2187,
    "rya": 1848,
    "ಕ್": 153,
    "ತ್ತಿ": 901,
    "ಶವಿದೆ": 3202,
    "ಸಂಸ್ಥ": 2124,
    "ಲಕ್ಷಗಟ್ಟ": 3886,
    "ಐಸಿಎಂ": 1894,
    "ರಾಜು": 930,
    "ಕೋಚ್‌ಗೆ": 1278,
    "ಲೆಟ್": 1085,
    "ನವೀಕರಿಸಿಕೊಂಡಿದ್ದಾರೆ": 4630,
    "ಹೆಚ್ಚುತ್ತ": 1684,
    "ಮೇಲ್ಛಾ": 3919,
    "ಳಗೆ": 1209,
    "ಕೃತ": 1906,
    "ತೊಡಗಿದ್ದಾಗ": 2751,
    "ಕಾರ್ಯತಂತ್ರ": 3763,
    "ಪಡೆಯುವಂತೆ": 3950,
    "ಂತಿದೆ": 2117,
    "ಂಬರೀಕರಣ": 2296,
    "ಏಜೆನ್ಸಿಗಳು": 4644,
    "ಜಯದೇವ": 4693,
    "ಕಾರ್ಯನಿರ್ವಹಿಸುತ್ತಿದೆ": 4236,
    "ೃತ": 472,
    "ಬೆಂಗಳೂರಿನಿಂದ": 4571,
    "ಚಿನ್ನ": 683,
    "000": 4278,
    "ತ್ವ": 1228,
    "ಗೊಮ್ಮೆ": 3901,
    "ಟಕ್ಕೆ": 1926,
    "ಕಾರಣವಾಗಬಹುದು": 4094,
    "ಬರಾಜು": 1503,
    "ಪ್ರಥಮ": 1245,
    "ವೈರಲ್": 2539,
    "ಐಡಿಎಸ್": 4993,
    "ಗಾವಲು": 2263,
    "ಭಾಷೆಯನ್ನಾಗಿ": 2465,
    "ಕುಮಾರ್": 1273,
    "ವಜೂ": 3189,
    "ಸೀನ": 4525,
    "ಸುಭಾಷ್": 2716,
    "ಂಡಿರುವ": 4059,
    "ತೆಗೆ": 620,
    "ಷ್ಣ": 1282,
    "ಕೇಳ": 1009,
    "ದೂರ": 1691,
    "ನೀಡಿದ": 927,
    "ಪ್ರಾಯ": 3359,
    "1924": 3929,
    "ಉದ್ಯೋಗವನ್ನು": 4982,
    "ನದಿಯಲ್ಲಿ": 1962,
    "ಬದ್ಧ": 3091,
    "ಸಂಸದರು": 4128,
    "ಒ": 83,
    "ರ್ತಿ": 1546,
    "ಪಾಲಿಕೆ": 3752,
    "ನಲ್ಲಿ": 288,
    "ಧಿಸಿದ": 3043,
    "ಸಾಮರ್ಥ": 2161,
    "ಖಚಿತಪಡಿಸಿದ್ದಾರೆ": 4892,
    "ದಲ್ಲೂ": 1717,
    "ಲಿನಿನ್": 4556,
    "ತಾವು": 3743,
    "?:": 2794,
    "ತೆರೆಯಲು": 4770,
    "ಕಾನ್": 1583,
    "ಲೋಡ್": 3936,
    "ಚಾಲಿತ": 3935,
    "ಪಟ್ಟ": 656,
    "ಸವಾರಿ": 3225,
    "‌ನಂತೆ": 2289,
    "ವಿಚಾರಣೆ": 964,
    "ಕು": 214,
    "ನಡೆದಿರುವುದು": 3844,
    "ಕಂಡಿದೆ": 4382,
    "ಳಿಗೆ": 335,
    "ಮಂಡಿಸಿದಾಗಲೇ": 2544,
    "ಗುಂಡೂರಾವ್": 3633,
    "ಯೂ": 1983,
    "ಟೆಲಿಜೆನ್": 4071,
    "ಾಪುರ": 888,
    "ಕಾಮಗಾರಿ": 1585,
    "ಎನ್ಕೌ": 2519,
    "ಕಾಶ್": 3424,
    "ನ್ಸಿಸ್": 3282,
    "),": 773,
    "ಸಚಿವಾಲಯ": 761,
    "ಡಕ್ಕೆ": 3007,
    "ಮೊವೈರಸ್": 3967,
    "ಪ್ರತಿಬಿಂಬಿಸುವ": 4805,
    "ಸರ್ಕಾರಿ": 1323,
    "ಎಂಎಲ್": 3593,
    "ಹೆಡ್": 3511,
    "ಅವಕಾಶವಿದೆ": 3443,
    "ರ್": 137,
    "ಕರು": 863,
    "ವಿಶ್": 1254,
    "ಛತ್ತೀಸಗಢದಲ್ಲಿ": 4873,
    "ಮುಖ್ಯರಸ್ತೆಯಲ್ಲಿ": 2255,
    "ಆದರೂ": 2893,
    "ಏಳಿಗೆ": 2932,
    "ಸಿಎಂ": 508,
    "ುತ್ತಿವೆ": 2100,
    "ಅಗತ್ಯತೆಗಳಿಗೆ": 4863,
    "ಅದರ": 994,
    "ನಿಲ್ದಾಣದವರೆಗೆ": 4020,
    "ಆರಂಭಿಸಲಿದ್ದಾರೆ": 4105,
    "ಭೇ": 880,
    "ಮಕರಣ": 1980,
    "ಭಾರತೀಯ": 836,
    "ಇಟ್ಟುಕೊಂಡಿದ್ದನ್ನು": 4887,
    "ರೇಂದ್ರ": 1101,
    "ಇಂಡಿಯಾ": 2653,
    "ಉದ್ಘಾಟಿಸಿ": 4055,
    "ಎ": 80,
    "ಮಾಡಿಕೊಳ್ಳಲಾಗಿದೆ": 2546,
    "ಆಕ್ಸಿಜನ್": 4959,
    "ಅಭಯಾರಣ್ಯ": 2729,
    "ಬಾಗಿ": 3088,
    "ಂತೆಯೂ": 3461,
    "ಂಟರ್": 1852,
    "ವೀ": 566,
    "ನೊ": 1961,
    "ಚಗೃಹ": 2982,
    "ಆರೋಪಿಗಳಿಗೆ": 1332,
    "ಪ್ಟಿಸ್": 3639,
    "ಗುಜರಾತ್": 772,
    "ಕೊಡು": 2172,
    "ಮಂಡ": 422,
    "ಅಭಿ": 634,
    "ಜಗದೀಪ್": 4506,
    "ಬಳಲುತ್ತಿದ್ದಾರೆ": 4032,
    "ನೂ": 1493,
    "ಮುಗಿಸಲು": 3538,
    "ಪ್ರಯಾಣಿಕರಿಗೆ": 2547,
    "ನೆಟ್": 2130,
    "ಅವ": 181,
    "ಧಾ": 402,
    "ರ್ಥ": 732,
    "ಕಾಯಿಲೆ": 2691,
    "ದೋಚಿ": 4511,
    "ಪೂರೈಸುವ": 4614,
    "ನಾಡು": 3911,
    "ಟಂ": 2995,
    "ಉದ್ದೇಶಿಸಿ": 4617,
    "ಇದರೊಂದಿಗೆ": 4680,
    "ಸರ್ಕಾರದ": 1724,
    "ಇತರೆ": 4966,
    "ಾಗಲೇ": 807,
    "ವೆಚ್ಚ": 2163,
    "ಲ್ಲೂ": 1551,
    "ಗಮನಿಸಿ": 4200,
    "ಸ್ಟ್": 2060,
    "ಬಾರಿಯ": 3094,
    "ಬೆಳೆಯುತ್ತಿರುವ": 4829,
    "arth": 4280,
    "ದ": 101,
    "ಕ್ಕೀಡಾಗುತ್ತಿದ್ದಾರೆ": 4434,
    "ಭದ್ರತಾ": 1406,
    "ವೆ": 226,
    "ಓ": 84,
    "ವಕೀಲರು": 2557,
    "ಮೌಲ್ಯದ": 2625,
    "ಿತ್": 535,
    "ಬೆ": 218,
    "ಲೈಕ್": 4210,
    "ಬಂದರೆ": 2267,
    "1945": 4796,
    "ಂಚ": 640,
    "SB": 2821,
    "r": 64,
    "ಭಾರ": 326,
    "ಮೇಣವಾಗಿ": 3704,
    "ಿದ್ದಾರೆ": 183,
    "ಉಸಿರಾಟದ": 981,
    "ಕೊಂಡ್ಲಿಯ": 4014,
    "ಶಕರು": 3198,
    "ಇದೇ": 1450,
    "ಅಂತರವನ್ನು": 4953,
    "ತೆಯಲ್ಲಿ": 875,
    "ಸಭ": 469,
    "ಏರಿ": 862,
    "್ದ": 151,
    "ಸಂಗ್ರ": 918,
    "ತಂದು": 1484,
    "ಉಲ್ಲೇ": 1884,
    "16ನೇ": 2434,
    "ಕೊನೆಗೆ": 3603,
    "ಭವನ": 792,
    "ಗೋಪಿನಾಥ": 1716,
    "ಕೊಲೆಗೈದು": 4045,
    "ರಲಿ": 1515,
    "ನೀಡಲಾಗುವುದು": 3626,
    "ಕನ್ನಡವು": 3822,
    "ಕ್ಷಗಳು": 3531,
    "ವರ್": 269,
    "ಸೂಚಿಸುವುದಿಲ್ಲ": 4350,
    "ಹೊಂದಿರದ": 4437,
    "ಸಾಧ್ಯ": 1275,
    "ಮೂ": 249,
    "ಕೊಲ್ಕತ್ತ": 3604,
    "ಆಗಿ": 644,
    "ಹಾಗೆ": 4121,
    "ಿಕ": 188,
    "ಪುತ್ರಿ": 3966,
    "ICMR": 1430,
    "ಮನ್ನ": 1976,
    "ಬ್ದ": 3085,
    "ಚಾಮರಾ": 1681,
    "ಹುಡುಕಲಾಯಿತು": 4789,
    "ಮುಂಬೈ": 4561,
    "ತಂಡವು": 2484,
    "ಲೋಕೋಪಯೋ": 3939,
    "ಕೋರಿ": 1277,
    "ವ್ಯಾವಹಾರ": 4138,
    "ಇಲ್ಲಿಯವರೆ": 4373,
    "ನೀರು": 1268,
    "ಹೆಚ್ಚುತ್ತಿರುವ": 4588,
    "ಮಿಜೋರಾಂನಲ್ಲಿ": 4917,
    "ತಕ್ಕ": 3022,
    "ಇವರಿ": 2902,
    "ತೂಕವಿದ್ದು": 2750,
    "ಜನಸಂಖ್ಯ": 1622,
    "ಿತ": 3237,
    "ಹಾಲಿ": 3909,
    "ಪ್ರಾರಂಭಿಸಲು": 4320,
    "ಂದಿ": 299,
    "ಅದು": 1148,
    "ಕಾಸ್ವಾಮಿ": 1584,
    "ಬದಲಾಗುತ್ತಿರುವ": 4519,
    "ಸ್ಯವನ್ನು": 4536,
    "Health": 4930,
    "ಗುಂಡಿ": 1286,
    "ಸಹಕಾರ": 2315,
    "ಒಂದ": 2937,
    "ಳತಿ": 3168,
    "ಪಡೆಯಲಿದ್ದಾರೆ": 2319,
    "D": 31,
    "ೆಗಳ": 3248,
    "ಕ್ಲಿ": 3329,
    "ರ್ಷಿ": 3276,
    "Rally": 4940,
    "ರಸ್ತೆಗಳ": 2293,
    "ವ್ಯಾಪಾರಸ್ಥರಿಂದ": 4860,
    "ವ್ಯಾಪಕವಾಗಿ": 4459,
    "ಬಂ": 437,
    "ಂಬರ್": 1674,
    "ವಾದ": 479,
    "ಲಿಟಿ": 2133,
    "15": 521,
    "ಿರುವ": 801,
    "ರ್ಚಿ": 3274,
    "ಲ್ಪಡ": 3272,
    "ಬೇಬಿ": 3575,
    "ಬ್ಬರ": 3714,
    "ಿಸಿಕೊಳ್ಳುತ್ತಿದೆ": 4410,
    "ಡರ್ಟ್‌ಲಾಂಗ್": 4698,
    "ಸರ್ಕಾರದಿಂದ": 4141,
    "ದರಪಟ್ಟಿ": 3700,
    ":": 25,
    "250": 1657,
    "ಕಟ್ಟಿಕೊಳ್ಳುವುದು": 4870,
    "ಚಕಮ": 1474,
    "ಆಕರ್ಷ": 1801,
    "ಹ್ಯ": 2016,
    "ಿಸಿದಾಗ": 2250,
    "ಅಡಗುತಾಣಗಳು": 4883,
    "ಹೇಳಿ": 448,
    "ಜೊತೆಗೆ": 2666,
    "ಸಂಜೆ": 1067,
    "ಗುದೀ": 3632,
    "ಿಂದ": 1222,
    "ಗಿದ್ದ": 1909,
    "50": 776,
    "ಮಾಲಿನಿ": 2078,
    "ಪ್ರಯಾಣಿಸಿದರು": 3977,
    "ಮಾಡುತ್ತಿದ್ದ": 4086,
    "ಕಾರ್ಯದರ್": 3762,
    "ಸೆಯಲ್ಲಿ": 3217,
    "ಆಲ್": 2883,
    "ಸುರೇ": 3719,
    "ತೆಯ": 1941,
    "ಸೇವೆ": 1093,
    "ಟಾ": 649,
    "ಐಜ್": 1893,
    "ನಿಯಾ": 905,
    "ಅಡೆತಡೆ": 2564,
    "ಭಾಷೆಗಳನ್ನು": 2464,
    "ಬ್ರವರಿ": 1357,
    "ತಮಿಳುನಾಡಿನಲ್ಲೂ": 2753,
    "j": 58,
    "ಧಿಕಾರವಾ": 3882,
    "ಆರಂಭವಾಗುವುದು": 4106,
    "ಕೆಲವರು": 2235,
    "ಲಸಿಕೆ": 2679,
    "ಬೇಕಿದೆ": 1733,
    "ಅಡಿ": 1439,
    "ಇಂಟರ್": 1727,
    "ಕ್ಕು": 3330,
    "ಸ್ವಾಮಿ": 1376,
    "ವೈಖರಿಗೆ": 1280,
    "ನಿಕರ": 3375,
    "ಪ್ರಶ್ನಿಸಿತು": 1771,
    "ನಾಗರಾಜು": 2445,
    "ವರದಿಯ": 2542,
    "ೂರು": 230,
    "ಬೆಟ್ಟ": 3544,
    "ಟ್‌ಗಳ": 3757,
    "ಿಸ": 145,
    "ಜನ": 240,
    "ಲೆಂಡರ್": 3659,
    "ತಾಣಗಳಿಗೆ": 4342,
    "ಯಂ": 723,
    "ಯುಗದಲ್ಲಿ": 4577,
    "ರಮೇ": 1032,
    "ರೋಗ": 1074,
    "ಅಳ": 855,
    "ಕಾರ್ಯಾಚರಣೆ": 1117,
    "ಕೆಕೆಆರ್": 3356,
    "ಕಾರಿಯಾಗ": 3900,
    "ಳ": 112,
    "ಳು": 352,
    "ಕಟ್ಟಡಕ್ಕೆ": 4504,
    "ದಿನಗಳ": 2380,
    "ೀಯರ": 3733,
    "ವಿಚಾರಣೆಯನ್ನು": 4006,
    "ನಕ್ಸಲರೊಂದಿಗೆ": 2474,
    "ಸರು": 442,
    "ಮಾಡಲಾಗುತ್ತದೆ": 4336,
    "ುವಿಕೆಗಾಗಿ": 4830,
    "ಅಗತ್ಯತೆಗಳನ್ನು": 4862,
    "ಗುಜರಾತ್‌ನ": 2412,
    "ಪಡೆದುಕೊಳ್ಳಲು": 4814,
    "ಇಷ್ಟೊಂದು": 2650,
    "ಸಚಿವ": 949,
    "ಿಸಿಕೊಂಡು": 2450,
    "ಕ್ಸಮ": 3331,
    "ಇಳಿದಿದ್ದು": 2567,
    "ಯಾಗಿರುವ": 3134,
    "ಲ್ಸ್": 3271,
    "ಈಡೇ": 2912,
    "ಐಎಲ್ಐ": 4994,
    "ಕಿ": 217,
    "ಾಗ": 150,
    "ಬಹುಮುಖ್ಯ": 2282,
    "ಪತ್ತೆ": 2414,
    "ಬೆಳಿ": 3546,
    "ಲದ": 1208,
    "ಬಾಬಾದ್": 1319,
    "ಿಸುತ್ತಾರೆ": 2214,
    "ನಡೆಯುತ್ತಿದ್ದು": 3952,
    "ಹೆಗ್ಗ": 2137,
    "ಪೂರ್ಣಗೊಳಿಸುತ್ತೇವೆ": 2621,
    "ಪ್ರಕಾರ": 1055,
    "ಚಾ": 497,
    "ಪಾಳ್ಯ": 3751,
    "ಸಂವಾದ": 3485,
    "ಸಂಶೋಧ": 1594,
    "?,": 1836,
    "ನ್ಯು": 3281,
    "ದ್": 220,
    "ಗೋಷ್ಠ": 4111,
    "ಘಟ": 781,
    "ದಾದ್ದರಿಂದ": 2188,
    "ಬೇಡಿಕೆಯು": 2430,
    "ಸಿಬ್ಬಂದಿ": 637,
    "ಅಸ್ತಿ": 1865,
    "ಅಸ್ತಿತ್ವ": 2644,
    "ಹಬ್ಬದ": 4721,
    "ದೆ": 203,
    "ಸಾಗುವ": 4528,
    "ಏಜೆನ್ಸಿಯು": 4645,
    "ಕಸಭಾ": 2955,
    "ಹೈಕೋರ್ಟ್‌": 4077,
    "ಯು": 334,
    "ಐಶ್ವರ್ಯ": 4068,
    "ಇನ್": 997,
    "ಂ": 71,
    "ಕಿಗೆ": 1466,
    "ತಿರು": 1576,
    "ುಬಂದರೆ": 3244,
    "ಮಾಡುವಂತೆ": 1079,
    "ಲ್ಕತ್ತ": 1545,
    "ಕರಣೆಗೊಳಿಸ": 3687,
    "ವ್ಯಕ್ತಪಡಿಸಿದ": 4150,
    "Aero": 4925,
    "ಿದ್ದ": 155,
    "ನಾಯ": 676,
    "ಹಂಚ": 2021,
    "ವಿಶ್ವ": 1415,
    "ವ್ಯವಹಾರ": 1639,
    "ಜಲಪಾತದಿಂದ": 4895,
    "ಚದರ": 1913,
    "ಧಾನಿ": 454,
    "ಅಳವಡ": 1371,
    "ಹೋಗುವವರಿಗೆ": 2514,
    "ನಿರ್ಧಾರ": 3754,
    "ಅವುಗಳನ್ನು": 1866,
    "ೋಗ್ಯ": 1555,
    "ಊರು": 2919,
    "ಚೀನಾದಲ್ಲಿ": 1373,
    "ಭಯಭೀ": 4399,
    "ಜ್‌ಗಳನ್ನು": 4579,
    "ವಿಧ": 3390,
    "ಾಗುತ್ತ": 343,
    "ಉತ್ಪಾದನೆ": 4626,
    "ತ್ವರಿತಗತಿಯಲ್ಲಿ": 4727,
    "ಸುಮಾರು": 1300,
    "1925": 3926,
    "ಸಂದರ್ಭಗಳಿಗೆ": 4188,
    "ಕಂಡ": 1165,
    "Y": 49,
    "ಅನುಕೂಲವಾಗಲಿದೆ": 4666,
    "ಸಗಢ": 2014,
    "ರ್ಮಾ": 3273,
    "SARI": 4943,
    "ಲಾಭಕ್ಕಾಗಿ": 3636,
    "ನಾರಾಯಣ್": 4841,
    "ಹೊಗೇನೆಕಲ್": 1392,
    "ಲಾಗುತ್ತದೆ": 1521,
    "ಆತಂ": 1448,
    "ನಿಯಂ": 1575,
    "ಲಿಜೆನ್": 3501,
    "ಗೃಹ": 2972,
    "ನೀಡುವ": 1082,
    "ಚಿಮ": 1272,
    "ಆರೋಪಿಗಳ": 1678,
    "ಪ್ರಯತ್ನ": 1567,
    "ಕರೆಯ": 2139,
    "ಮೆಟ್ರೊ": 4047,
    "ಯಾಗಿದೆ": 3124,
    "ಸಂಕೀರ್ಣ": 2697,
    "ಮಿಜೋರಾಂನ": 4918,
    "ೆಯಾಗಿದೆ": 3402,
    "ಡಿಂಗ್": 3416,
    "ಪ್ರತಿನಿ": 840,
    "ಗ್ಯಾರಂಟಿ": 2223,
    "ಡಿಗಳು": 3412,
    "ದುಕೊಳ್ಳ": 1591,
    "ಮಲೈ": 3114,
    "ಸಮಯೋಚಿತ": 2328,
    "ದಶಕದಲ್ಲಿ": 4898,
    "ಹಲಿ": 443,
    "ೀ": 141,
    "ಸ್ತಿ": 1560,
    "DM": 2801,
    "ದಾಖಲೆಗಳನ್ನು": 2510,
    "ಜಾರಿಗೆ": 1922,
    "ಸಲ್ಲ": 885,
    "ಪ್ರ": 160,
    "ಗೀತಾ": 1806,
    "ಅತ್ಯ": 2873,
    "ಸನ್ನು": 3209,
    "ಧಂಕರ್": 3046,
    "ಸಮಿ": 2013,
    "ಂದಿತ್ತು": 3725,
    "ವಯಸ್ಕರು": 4853,
    "ಓದಿದರೆ": 4998,
    "ಚರ್": 1912,
    "ಘಾ": 346,
    "ಆರ್‌ಎಸ್‌": 2505,
    "ಚ್ಛ": 2140,
    "ಪರೀಕ್ಷ": 1192,
    "ವನದುದ್ದ": 4119,
    "v": 68,
    "ಎಸ್‌ಎಸ್‌ಬಿ": 4446,
    "ದರತ್ತ": 3699,
    "ಜಾಮೀನಿನ": 3861,
    "ಪರ": 1026,
    "ನೀರಿನ": 2136,
    "ಅಭಿಜಿತ್": 2363,
    "ಅದಕ್ಕೆ": 2878,
    "-": 12,
    "ಚು": 347,
    "ಂದೂಡಿ": 3289,
    "ಕಾ": 176,
    "ಸಂಪರ್ಕದೊಂದಿಗೆ": 4193,
    "ಪಡೆಯದ": 3948,
    "ಿದ": 132,
    "ಜಾರಿಯ": 1923,
    "ವಂಚಿಸಿದ್ದರು": 2418,
    "ಕಲು": 2949,
    "ಏರಿಕೆಯ": 4198,
    "ತೆಯು": 1948,
    "ಸ್ಥಳಕ್ಕೆ": 2295,
    "ಗವನ್ನು": 2968,
    "ಊರಿನವರಿಗೆಲ್ಲ": 4985,
    "ಾಗುತ್ತಲೇ": 3783,
    "ಅಧಿಕಾರಿಯನ್ನು": 4592,
    "ನಡೆಯ": 511,
    "ಧರ್": 654,
    "ನಾಚಿ": 2102,
    "ಪಾತ": 2225,
    "ಪೀಠ": 1094,
    "ನೀ": 204,
    "ಪ್ರವಾಸಿಗರು": 2388,
    "ಸಂಚ": 2122,
    "ರಸ್ತೆಯಲ್ಲಿ": 1290,
    "ನಿರ್ಲಕ್ಷ": 3753,
    "ಭಕ್ಷ": 1974,
    "ತೀರಿಕೊಂಡ": 3904,
    "ಮೃತಪಟ್ಟಿದ್ದು": 4258,
    "ಹರ್": 1219,
    "ಅಭಿವೃದ್ಧಿಯಲ್ಲಿ": 4467,
    "ಸೇಂಟ್": 3767,
    "ಸರ್": 425,
    "ಕುಟುಂಬ": 1821,
    "ಕರ": 206,
    "ಳಿ": 407,
    "ನ್ಸ್": 1547,
    "ಲಿನಲ್ಲಿ": 1596,
    "ಮೂರು": 1030,
    "ಒಬ್ಬಳೆ": 1758,
    "ನೀಡುತ್ತದೆ": 2501,
    "ತಿಯನ್ನು": 2207,
    "ಯವರೆ": 3133,
    "ದಾ": 258,
    "ದರ್ಶನ್": 1754,
    "ಕನ್ನಡವನ್ನು": 1317,
    "2": 17,
    "ಸ್‌ಪೆ": 3344,
    "ಇಂದು": 522,
    "ಗಾಲು": 3825,
    "ಪ್ರತಿಬಿಂಬವಾಗಿದೆ": 4804,
    "ನಿರ್ದೇಶನಾಲಯದ": 2626,
    "ಸಂಪರ್": 814,
    "ವಿಪಕ್ಷಗಳು": 4740,
    "ಒಂದು": 780,
    "ತ್ತಿಕೊಂಡ": 3315,
    "ಯೆ": 1031,
    "ಕೇಳಿಕೊಂಡಿದ್ದಾರೆ": 2483,
    "ರೇನು": 3820,
    "ಬೇಡ": 3574,
    "ಅಧಿಕಾರಿಯೊಬ್ಬರು": 2611,
    "ಪ": 104,
    "RRT": 1840,
    "ಾದ": 665,
    "ಗೀ": 1471,
    "100": 2345,
    "ಪಡೆಯಬಹುದಾಗಿದೆ": 1335,
    "ಟೆ": 651,
    "ಶಿಬಿರದಲ್ಲಿ": 2552,
    "ೈಲ": 674,
    "ಸೌಲಭ್ಯ": 960,
    "ರ್ವ": 803,
    "ಪದವನ್ನು": 3073,
    "ಸುಟ್ಟ": 3718,
    "ಪ್ರತಿಶತವನ್ನು": 3946,
    "ದಾಖಲಾಗಿರುವ": 4146,
    "ಗೋಪಿನಾಥಂನಲ್ಲಿ": 4606,
    "ಮಿಲೇ": 3703,
    "ಚಿಕಿತ್": 549,
    "ಮೆಟ್ರೋ": 706,
    "ಸಂದೀಪ್": 2351,
    "ಆರೋಗ್ಯವಾಗಿದ್ದು": 2258,
    "ಲಿ": 199,
    "ಮಾಡುತ್ತೇವೆ": 2381,
    "ಿಸಿದ್ದಾರೆಂದು": 3853,
    "ಅತ್ಯಂತ": 4952,
    "ಕಾರ್ಯಕ್ರಮ": 938,
    "ಿದವರ್ಯಾ": 3261,
    "ಪ್ಟನ್": 3640,
    "ಶ್ರುತಿ": 3599,
    "ಯೋಗ್ಯ": 3716,
    "ಮೇಲ್ದರ್ಜೆಗೇರಿಸುತ್ತ": 4662,
    "ರಾತ್ರಿ": 1582,
    "ನೌಕರರು": 1773,
    "ಗರಿ": 2965,
    "ವಿವಾದಕ್ಕೀಡಾಗುತ್ತಿದ್ದಾರೆ": 4741,
    "ಲಿಕೆ": 3498,
    "ಅಸ್ತಿತ್ವಕ್ಕೆ": 4884,
    "ಧ": 102,
    "ಸಾರ್ವಜ": 1141,
    "ಆತನಿ": 1872,
    "N": 40,
    "ಹೆಸರು": 921,
    "ಆಗಮಿಸಿ": 1753,
    "ಂತೇವಾಡ": 3462,
    "ಕಾನ್ಫರೆನ್ಸ್": 2752,
    "ಸಮಾಜ": 1409,
    "381": 2774,
    "ಶೋಧ": 1326,
    "ವನ್ನೂ": 3184,
    "ೆಯರ": 3400,
    "ಆಧಾರಗಳನ್ನೂ": 4282,
    "ಾದ್ಯ": 2023,
    "ವೇಳೆಗೆ": 1706,
    "ಸುದ್ದಿ": 1644,
    "ಷ್ಟು": 939,
    "ಜಗದೀಶ್": 2576,
    "ಕೈಗೆತ್ತಿಕೊಂಡ": 4127,
    "ಪರಾರಿಯಾಗಿದ್ದ": 4843,
    "ಡು": 1017,
    "ಅನಿಲ್": 2876,
    "ಮುಟ್ಟಿಕೊಳ್ಳುವುದರಿಂದ": 4761,
    "ಹೆಸರನ್ನು": 2402,
    "ಒಡಬಂಡಿಕೆ": 2661,
    "ಸದಸ್ಯಪೀಠ": 4794,
    "ರಸ್ತೆಯು": 2185,
    "ನಕ್ಸಲೀಯರ": 4264,
    "ಆತಂಕಕ್ಕೆ": 4491,
    "ೖದು": 3255,
    "ಸಾಮಾ": 685,
    "ಬಿಸಿ": 1972,
    "ಮಲ್": 3106,
    "ಪ್ರಯತ್ನಗಳನ್ನು": 4539,
    "ಪ್ರವೇ": 2069,
    "ಕಡಿಮೆ": 2523,
    "ಮಾರ್ಕಿಂಗ್‌": 2723,
    "ಇಚ್ಛಿಸುತ್ತೇನೆ": 4975,
    "ಯುವ": 1511,
    "ಯವಾಗಿದೆ": 1514,
    "ಲಿದ್ದಾರೆ": 1993,
    "ಪ್ರಗತಿ": 3362,
    "ಉಗುಳಬೇಡಿ": 4980,
    "ಹೊಗೇ": 1086,
    "ಬೆಳವಣ": 4131,
    "ಮದ್": 1979,
    "ಿಕೊಳ್ಳುವ": 3961,
    "ಕಿಲೋಮೀಟರ್": 769,
    "ಕೆ": 159,
    "ಖೆ": 556,
    "ಫರೆ": 1968,
    "ಮಾರ್ಗದ": 944,
    "ಬಂಧಿಸಿದ್ದಾರೆ": 2357,
    "ಕೇಳಬೇಕು": 4290,
    "ಣಪುರ": 3016,
    "ಸಿಸ್ಟಂ": 4403,
    "41": 2775,
    "ನಿರ್ವಹಣೆ": 4095,
    "ಕಾನ್ಮಿಯಾ": 4547,
    "ನೋವುಂಟು": 4822,
    "ಧುನಿಕ": 1675,
    "ಭಯ": 1198,
    "ಬೈಲಕುಪ್ಪ": 850,
    "ದ್ವಾರ": 3552,
    "ನಡೆಯುತ್ತಿದೆಯೇ": 3954,
    "ಭ್ಯ": 602,
    "ಲೆಯ": 1992,
    "ಕ್ಯಾಲೆಂಡರ್": 4414,
    "ಭರ್": 3099,
    "ರಾಜ್ಯ": 368,
    "ತನಾಡ": 498,
    "ಟ್ಟು": 543,
    "ಇನ್‌": 2904,
    "ಮಜೀ": 3115,
    "ಸಾಬೂ": 3563,
    "JMG": 4934,
    "ಪೊಲೀಸ್": 756,
    "ಕಾರಿಡಾ": 838,
    "ಕಾಜಿ": 1259,
    "ನ್": 138,
    "ತಾರ್‌": 3744,
    "ಕಲಾಯಿತು": 4502,
    "ವಿಪತ್ತು": 4739,
    "ುತ್ತಿದೆ": 3433,
    "ನಡ": 246,
    "ಬೆಳೆದಿದೆ": 4762,
    "ಷಾ": 2009,
    "ಮಾಧ್ಯಮ": 1816,
    "araja": 4281,
    "ಸುಸ್ಥಿತಿಯ": 2212,
    "ವಿಶ್ವಜಿತ್": 4479,
    "ಖೆಯ": 2958,
    "ಪ್ರಾರಂಭವಾದವು": 4324,
    "ತ್ವರಿ": 2040,
    "ಟನ್": 2997,
    "ಎಂಬುವ": 1618,
    "ಪಾ": 319,
    "ಮುಟ್ಟ": 2153,
    "ಪಿಗ್": 2159,
    "ಘೋ": 2974,
    "ತೃತ": 3025,
    "ಮುಂದೂಡಿ": 3539,
    ".": 13,
    "ನಿಜವಾದ": 3387,
    "ಂಜ್": 2853,
    "ಕಿಲೋಮೀಟರ್‌ವರೆಗೆ": 2411,
    "ಜೊ": 1919,
    "ಕಳೆದ": 842,
    "ಬೇಡಿಕೆಗಳನ್ನು": 4184,
    "ಶ್ರ": 1038,
    "ಒಟ್ಟು": 713,
    "ಸಭೆಯ": 2299,
    "ಮಾಧಿಕಾರಿ": 3369,
    "ನಡೆಸಿದಾಗ": 4581,
    "ಸೀ": 1527,
    "ಚೀನಾದಲ್ಲಿನ": 4465,
    "ಎಸ್": 357,
    "ುತ್ತಿದ್ದು": 1586,
    "ಮೇಲ್ಮೈ": 3918,
    "ರೈಲ್": 1299,
    "ಿದ್ದು": 224,
    "ಮಾಡ": 227,
    "ರದ್ದುಗೊಳಿಸುವಂತೆ": 4827,
    "ಸಂಗ": 3482,
    "ತ್ರಾಸ್ತ್ರಗಳನ್ನು": 4534,
    "ಹುಟ್ಟಿದಾಗ": 2604,
    "ಮ್‌ಗಳು": 3616,
    "ಎದುರಿಸಬೇಕಾಗುತ್ತದೆ": 4499,
    "New": 4937,
    "ಆಹಾರ": 2892,
    "ಸ್ಥ": 265,
    "ಉನ್ನ": 1454,
    "ವ್ಮಿ": 2398,
    "ಇತರರೊಂದಿಗೆ": 4284,
    "<pad>": 0,
    "ಕಲ್ಪಿಸಿದ್ದಾರೆ": 4243,
    "ಫ್ರಾಂ": 3078,
    "ರ್ಲಪಲ್ಲಿ": 3278,
    "ರಾಧದ": 3420,
    "ಎಚ್‌ಎಂಪಿವಿ": 1793,
    "ಜಿಂಕೆಗಳು": 3689,
    "ಸಮಯದಲ್ಲಿ": 1761,
    "ಆತಂಕದ": 2566,
    "ಅಕ್": 2867,
    "ವೇಗವಾಗಿ": 2509,
    "ಸೊ": 3207,
    "ಗ್ಲಿಷ್": 3731,
    "ಠ": 95,
    "ಿಸುತ್ತಿದ್ದ": 3726,
    "ಿಸುತ್ತಿದೆ": 1645,
    "ವೇಗವನ್ನು": 1765,
    "ಿಸಿದ್ದ": 805,
    "ತಂದೆಯನ್ನು": 4114,
    "ವಿದ್ಯುತ್": 4306,
    "ತೋರಿಸುತ್ತ": 4163,
    "ನಿರಾಶ್ರಿತರ": 4734,
    "ಆದಾಯ": 1669,
    "ವಹ": 363,
    "ವಾದಗಳನ್ನು": 3913,
    "ತ್ತೀ": 669,
    "ನೌ": 1020,
    "ಧಿ": 463,
    "ದೇಶದ": 951,
    "ಅತುಲ್": 1799,
    "ಅಡಿಪಾಯ": 4486,
    "ಆತನಿಗೆ": 2647,
    "ವೈರ": 1279,
    "ಪ್ರಯಾಣಿಕರ": 4452,
    "ಗಣ": 2961,
    "ಗುರಿಯ": 3630,
    "ಬಳಸಿ": 1348,
    "ಅವಮಾನ": 3441,
    "ಫಲ್": 1967,
    "ಏಜೆನ್ಸಿ": 1804,
    "ೇವಾಡ": 2685,
    "ಬಿಗಳಾಗಿದ್ದರು": 3530,
    "ಯನ್ನು": 795,
    "ನೀಡಬೇಕಿದೆ": 3625,
    "ಪ್ರಸ್ತು": 1246,
    "ಯೋಜಿಸುತ್ತಿದ್ದೆವು": 2728,
    "ನನ್ನನ್ನು": 4296,
    "ಕಿಮೀ": 1075,
    "ನಿರ್ಣ": 1305,
    "ಖಚಿ": 1907,
    "ಇನ್ನೊಂದು": 4967,
    "ಶನಿವಾರ": 1039,
    "ರ್ಹ": 1050,
    "ಕಲಿ": 1467,
    "21ಕ್ಕೆ": 2772,
    "ಪರಿಸ": 788,
    "Ral": 2820,
    "ಸಂಕಷ್ಟ": 2128,
    "ಹಗಳು": 3227,
    "ಕ್‌ಕ್ರ": 3334,
    "ಕೆಂದರೆ": 3355,
    "ೆಯವರು": 3403,
    "ನ್‌": 666,
    "ಪಾಸಿಟಿ": 1650,
    "ಎಎಲ್‌": 1458,
    "ಇಲಾಖ": 1703,
    "8ಕ್ಕೆ": 2790,
    "ಸೈ": 3211,
    "ವಿ": 165,
    "ಪ್ರಕರಣ": 313,
    "ಜ್ಞ": 834,
    "ಚ್‌ಗೆ": 1270,
    "ಹರಿ": 2017,
    "ತೂ": 1482,
    "ಟಿಬೆ": 922,
    "ಸಿತ": 2121,
    "ನೆಚ್ಚಿನ": 2698,
    "03": 2763,
    "ಗಳಾಗಿದ್ದರು": 3297,
    "ಿಸದೆ": 3302,
    "ಧ್ಯ": 403,
    "ಶಾಸಕ": 4809,
    "ವೇಗದ": 1310,
    "ಸ್ಟೇ": 3343,
    "ರಾಜಕೀಯದ": 4439,
    "ಔ": 85,
    "ಅಡೆತಡೆಗಳನ್ನು": 4864,
    "ಮಹಿಳ": 1116,
    "680": 2785,
    "ಟಾಘರ್": 1704,
    "ರೂಪಾಯಿಗಳಿದೆ": 2306,
    "ಕೋವಿಡ್‌ನಂತೆ": 2599,
    "ಗಳಿವೆ": 1328,
    "ಸಂಬೋ": 3487,
    "ವೇ": 339,
    "ಸಂರಕ್ಷ": 3490,
    "ಕುಟುಂಬವು": 4660,
    "ಸೇರಿಕೊಳಲಿದ್ದು": 4783,
    "ಣು": 873,
    "ಸಲ್ಲಿಸಿದ್ದ": 2446,
    "ೃಹದ": 3247,
    "ಆವರಿಸುತ್ತದೆ": 4961,
    "ಣೆ": 303,
    "ಡಿಸ": 1932,
    "ಆರಂಭಿಸಿದ": 4102,
    "ವಿರುದ್ಧದ": 2453,
    "ರಪ್ಪ": 1207,
    "ಯೋಚಿತ": 2208,
    "ಕರಾವಳಿಯಲ್ಲಿ": 4365,
    "ಪ್ರವೇಶಿಸಿ": 4904,
    "ರಿಯಾ": 3365,
    "ಅಸಭ್ಯ": 4954,
    "ೇನೆ": 2042,
    "ಗಮನಾರ್ಹ": 4687,
    "ಕಾರಿಡಾರ್‌": 4194,
    "ಜಾತಿ": 3860,
    "ಉಲ್ಲೇಖಿಸಿದ್ದಾರೆ": 4889,
    "ಉದ್": 594,
    "ಟೆಂಟ್": 4070,
    "ಎಕೆ": 2924,
    "ಬೈಲಕುಪ್ಪೆಗೆ": 1370,
    "ಟವೆ": 3001,
    "ಹೇಳಿದ್ದಾರೆ": 618,
    "ೂ": 121,
    "ವುಕರ": 3409,
    "KSRTC": 1798,
    "ಸುಭಾ": 2210,
    "ಮ್ಮೆ": 2222,
    "ಫೀಡ್": 3079,
    "ಎಫ್‌ಐಆರ್‌ನಲ್ಲಿ": 4643,
    "ದಾಖಲೆ": 1109,
    "ಕೋರಿದರು": 2598,
    ".)": 2760,
    "ಸಿದ್ಧತೆ": 1792,
    "ರ್ಣ": 536,
    "ಿದ್ದರೆ": 1240,
    "ಸಣ್": 3221,
    "ಮೇಲ್ದರ್ಜೆಗೇರಿಸಲು": 2632,
    "ಶಿಗಳು": 3666,
    "ವಾಗಿದೆ": 567,
    "ಖಟ್ಟ": 1011,
    "ನೌಕರರಿಗೆ": 4367,
    "ರಸ್": 250,
    "ಮತ್ತೆ": 1389,
    "ಭಾಷ": 483,
    "ಕರ್": 401,
    "194": 2307,
    "ಪರಾರಿಯ": 2486,
    "ಮದು": 3109,
    "ದಿಕ್ಕು": 3471,
    "NCDC": 4938,
    "ತಾಯಿಯ": 4701,
    "ಬಿಟಿ": 2142,
    "ಆರಂಭ": 704,
    "ಗಡಿಯ": 1741,
    "ಶಿಬಿರದ": 1737,
    "ಕರ್ನಾಟಕದಲ್ಲಿ": 2334,
    "ಂಪ": 1436,
    "ಮೊದಲೇ": 4808,
    "ಶತವನ್ನು": 3201,
    "ದಿನವಾಗಿದ್ದು": 4083,
    "ೋಳಗೆ": 3311,
    "ವೇದಿ": 2236,
    "ಕರಡಿಗಳು": 3520,
    "ಎಸ್ಎಆರ್‌": 3799,
    "ಯರ್‌": 3132,
    "Ch": 1428,
    "ಪಾರ್ಹ": 1649,
    "ನವದೆಹಲಿ": 1402,
    "ಡಿಕೆ": 2093,
    "ನೀಡಿದ್ದು": 2178,
    "ಿಸುವುದಿಲ್ಲ": 2449,
    "ಸಿಜನ್": 3477,
    "ನಡೆಯುತ್ತಿವೆ": 3953,
    "ಇನ್ಫ್ಲುಯೆನ್ಸ": 4922,
    "ಪ್ರತಿನಿಧಿಗಳು": 1770,
    "ತ್ಯ": 387,
    "ಕಕ್ಕೆ": 1468,
    "ನವೀ": 1188,
    "ಾನ": 800,
    "ಕ್ರಾಮ": 2956,
    "ಡಿಗರು": 3417,
    "ಎಎಲ್‌ಎಚ್": 1803,
    "ರಪಿ": 3143,
    "ಬೋಗಿಗಳಿಗೆ": 4362,
    "ಔತಣಕ್ಕೆ": 4648,
    "ಸೂರ್ಯ": 694,
    "ಶಿಬಿರ": 1367,
    "ಧಮ್": 1959,
    "ರದ": 604,
    "ಅತ್ಯಾಧುನಿಕ": 4956,
    "ಸಂಚರಿಸಲು": 4747,
    "ೆಯಾಚನೆಗೆ": 3405,
    "ಬಡ": 3080,
    "ಂಡಿ": 641,
    "ಣ್": 557,
    "ಕೆಳ": 1564,
    "ಬೌ": 3082,
    "ನಿರ್ದಿಷ್ಟ": 2231,
    "ುದ್ಧ": 1535,
    "ವೆಚ್ಚವಾಗಬಹುದಾದ್ದರಿಂದ": 2705,
    "ಇದು": 433,
    "ಉದಾ": 2916,
    "‌ಗೆ": 1047,
    "ಕೂಡ": 1112,
    "ಬಾರ": 1970,
    "ನವನ್ನು": 3054,
    "ಸೇರಿ": 2233,
    "ಸೋಂಕಿ": 3908,
    "ಲಾಲು": 3634,
    "ಾಗಿರಲಿದೆ": 3458,
    "ವೀರೇಂದ್ರ": 4000,
    "ಇಲ್ಲಿ": 1151,
    "ತಿಯ": 294,
    "ಕಿಲೋ": 684,
    "ಂಡೂರಾವ್": 3508,
    "ಗುರುತಿಸಲಿವೆ": 4766,
    "ನು": 267,
    "ಬದಿಗಳು": 2676,
    "ಕೆಗೇ": 2067,
    "ದಶ": 1951,
    "ನಿ": 163,
    "ಟಿಎಸ್‌ನ": 4755,
    "ಹೇಳಿಕೆ": 548,
    "ಿಸುವು": 897,
    "ಹಿನ್ನೆಲೆಯಲ್ಲಿ": 1417,
    "ಸಲ್ಲಿಕೆಯಾಗಿದೆ": 2682,
    "ನೀಡುತ್ತಿದೆ": 4337,
    "ತಿಳಿದು": 1129,
    "ಮಹಿ": 722,
    "ಸಾಹಿ": 1274,
    "ಮಹಿಳೆಗೆ": 4608,
    "ಭಾಗವಹಿಸುವವರ": 4859,
    "ಖಾಸಗಿ": 1387,
    "ವಶ": 3174,
    "ಸಫ": 729,
    "ಓಡಲಿದೆ": 4686,
    "ಹುಡುಕುತ್ತ": 4788,
    "ಹಲವಾರು": 2376,
    "ಮಿಯಂ": 2201,
    "ಿತರ": 3241,
    "ಇಟ್ಟು": 1880,
    "ಮು": 215,
    "ಸಾಲದ": 2160,
    "ಬಿಧು": 576,
    "ರ್ಡ್": 893,
    "ಉಸ್ತುವಾರಿ": 4983,
    "ನೀಡಿ": 616,
    "ನಿಗೆ": 3374,
    "ಎಷ್ಟು": 2927,
    "ಲೇಔಟ್‌": 2244,
    "ಎಂದರು": 1740,
    "ಸೃಷ್ಟ": 2015,
    "ಪ್ರಸಾ": 3358,
    "ಮೌಲ್ಯ": 1782,
    "ತನಗೊ": 1949,
    "ಮಿ": 289,
    "ಕುರಿತಂತೆ": 4835,
    "ಹೆಲಿಕಾಪ್ಟರ್": 708,
    "ಲೈ": 884,
    "ಇಡ": 1876,
    "ಯಾಬಾದ್": 3451,
    "ಹೃದಯಾಘಾತಕ್ಕೆ": 1396,
    "ಪ್ರಾಥಮಿಕ": 2492,
    "263": 4482,
    "ಗುತಾಣ": 2180,
    "ಶಂಸ": 3200,
    "ಆತ್ಮಹತ್ಯೆಗೆ": 1363,
    "3ರಲ್ಲಿ": 1833,
    "ಅಸಹ": 1860,
    "ಪಡೆದುಕೊಂಡ": 4012,
    "ಬೆಳೆಯ": 2403,
    "ಸಾಲ": 3555,
    "ದೋಣಿ": 2581,
    "ರೋಗಕಾರಕಗಳು": 4335,
    "ಶ್ರಮಶೀಲರು": 4622,
    "ಪಡೆಗೆ": 3594,
    "ಭೇಟಿ": 1375,
    "ಈ": 76,
    "ಗಡಿಯಲ್ಲಿರುವ": 2439,
    "ಕೃಷ್ಣ": 2522,
    "ಸ್": 154,
    "ಕಾರ್ಯನಿರ್ವಹಿಸುತ್ತದೆ": 4234,
    "ಿಸಿಕೊಂಡ": 900,
    "ಬ್ಯಾಂಕ್‌ಗೆ": 4875,
    "ಗೋಪಿನಾಥಂ": 4605,
    "ದಾಖಲೆಯ": 4142,
    "ನಿಯ": 1574,
    "ಅನುಕುಮಾರ್": 4061,
    "ಸಂಕಿರ್ಣವನ್ನು": 4908,
    "ಐಶ್ವರ್ಯಾ": 768,
    "eme": 2835,
    "ನ್ನೈ": 1238,
    "ಅಭಯಾರ": 2310,
    "11": 2764,
    "ಲಿತ": 3497,
    "ಇಳಿದು": 4495,
    "ಲ್ಯ": 1543,
    "ಆತ": 2880,
    "ಕಾರಕಗಳು": 3742,
    "ಅಶೋ": 856,
    "ಕ್‌ಗಳ": 3333,
    "ಎಂಬುವವರಿಂದ": 2601,
    "ಹೆಸರಿಸಿದೆ": 4130,
    "ಯಲ": 1510,
    "ಶೀ": 568,
    "ಅಸಹಜ": 4673,
    "ರದ್ದು": 725,
    "ವಣಿ": 3186,
    "ಮೂರನೇ": 3642,
    "ಸಿದ್ದರಾಮಯ": 484,
    "ಕ್ಕೂ": 1084,
    "ಕುಟುಂಬದವರ": 4661,
    "ಮಾಹಿತಿಯ": 4327,
    "ಗಿರವಿ": 3682,
    "ಟಲಿ": 3000,
    "ವೃದ್ಧರು": 4015,
    "ುವುದು": 485,
    "ಆಕ್ರೋಶ": 4679,
    "ದುದ್ದ": 3453,
    "ಹೇಳಿಕೆಯು": 3981,
    "ವಿಷಯವಾಗಿದೆ": 2537,
    "ನೋವಾಗಿದ್ದರೆ": 4115,
    "ಸಂಗ್ರಹಿಸಲಾಗಿದೆ": 4272,
    "ದಿನಗಳಲ್ಲಿ": 1708,
    "’": 131,
    "ನಾಯಕ": 1353,
    "ಯಮೂ": 1512,
    "​​": 1538,
    "ಮಾದರಿ": 1573,
    "ದರ": 287,
    "ಪೈಲ": 1965,
    "ಮಾಸವನ್ನು": 3372,
    "iv": 2838,
    "ನಪ": 3047,
    "ಕ್ಷೇತ್ರಕ್ಕೆ": 2469,
    "ಪರೀಕ್ಷಿಸುತ್ತದೆ": 4394,
    "ಸಿದೆ": 3210,
    "26ನೇ": 4483,
    "ಚಾಮರಾಜನಗ": 1827,
    "ಜಗ": 1915,
    "ಕುಪ್ಪ": 815,
    "ನಾವಿದ್ದೇವೆ": 4743,
    "ಯಷ್ಟು": 3129,
    "ಇನ್ಸ್‌ಪೆ": 4283,
    "ಇನ್ನು": 998,
    "ನೀಡಿತ್ತು": 4041,
    "ವೃ": 468,
    "ಬಂಧ": 631,
    "ನಿಶಾ": 3383,
    "ಜಿಲ್ಲಾ": 1746,
    "ರ್ಯ": 262,
    "ಳನ್ನು": 1998,
    "ಮಿಲಿಯನ್": 2714,
    "ಚ್": 207,
    "ಫಲವಾಗಿ": 4395,
    "ಬದು": 3087,
    "ಂತಹ": 677,
    "ಬಯಸಿದ್ದರು": 4515,
    "s": 65,
    "ಕೆಟ್": 1565,
    "ಪು": 528,
    "ರನ್ನು": 467,
    "ಮಕ್ಕಳ": 1099,
    "ಮಹಾಲಕ್ಷ್ಮಿ": 2428,
    "5": 20,
    "ಬೇ": 228,
    "ಬೂ": 3081,
    "ಪ್ಪೆ": 3845,
    "ಪ್": 248,
    "ನಿಯಲ್ಲಿ": 3380,
    "ಇತ್ಯರ್ಥಕ್ಕಾಗಿ": 4968,
    "ುವ": 192,
    "ಕಾರ್ಯದಕ್ಷ": 3765,
    "ಆಸ್ಪತ್ರ": 831,
    "ಆವೃತ್ತಿ": 2895,
    "ತಗತಿಯಲ್ಲಿ": 3026,
    "ವಸ": 2001,
    "202": 689,
    "ತಂಡದ": 4293,
    "ಒಳ": 1159,
    "ೃಷ್ಣ": 2030,
    "ಕ": 86,
    "ಪಡೆದುಕೊಳ್ಳ": 2343,
    "ವರ್ತಿಗಳನ್ನು": 3678,
    "alth": 4667,
    "ಲ": 111,
    "ಮಂಡನೆಯ": 3866,
    "ಲಿದ": 3154,
    "ಪ್ರಾದೇಶಿಕ": 4318,
    "ಬಲಿಯಾಗುತ್ತ": 1811,
    "ಂಪು": 2859,
    "ರಸ್ತೆಗಳನ್ನು": 953,
    "ಉನ್ನಿಕೃಷ್ಣನ್": 2748,
    "ಮದಾ": 1508,
    "ಗನ್ನು": 2964,
    "ಕಾರಿಡಾರ್‌ನ": 2433,
    "ಿತು": 1534,
    "ಅಧ್ಯ": 1441,
    "ಮಿಲಿಯ": 2202,
    "ಾರಿ": 213,
    "ಕೆಲದಿನಗಳ": 3776,
    "ಮಾಡಿದರು": 1276,
    "ಪರೀಕ್ಷಿಸುವ": 2527,
    "ಪ್ರತಿ": 505,
    "ೊಬ್ಬ": 2038,
    "ದೇಶದಲ್ಲಿ": 2278,
    "C": 30,
    "ಲಪಲ್ಲಿ": 3166,
    "ವಕೀಲರಾದ": 4476,
    "ಋತುವಿನಲ್ಲಿ": 4986,
    "ದಂಪ": 3039,
    "ಭಾಗವು": 3862,
    "ಐಶ್": 647,
    "ರಸ್ತೆ": 450,
    "ಸಲ": 607,
    "ಮಾಡಲಿದ್ದೇವೆ": 2499,
    "ಅಡಗುತಾಣ": 2639,
    "ಸುಲ್ತಾನಿಮ್": 2719,
    "ಕೋಟಿ": 687,
    "ೈನ್": 3406,
    "ವಾಗುವುದು": 3941,
    "ಹೆಣ್": 3512,
    "ವರ್ಕ್‌ಗಳ": 3679,
    "ಉದಾಸೀನ": 4981,
    "ತಿಕ": 673,
    "ಭೀಕರ": 1781,
    "ಸಾಧ್ಯತೆಗಳಿವೆ": 4428,
    ",": 11,
    "ಳೆಯ": 1999,
    "ಫ": 105,
    "ಹ": 117,
    "ವಕೀ": 1214,
    "ಹೊಂದಿ": 1293,
    "ya": 1435,
    "ವೇದಿಕೆಗಳು": 4786,
    "ದಿನ": 679,
    "ರಲ್ಲಿ": 882,
    "ಂಗ್": 1145,
    "ಅತ್ಯಾ": 2879,
    "ಪರಿಷ್ಕರಣೆಗೊಳಿಸ": 4595,
    "ಟೆಕ್ಕಿ": 2369,
    "ಮೂಲಸೌಕರ್ಯ": 2720,
    "HO": 2805,
    "Su": 1432,
    "ಂದೇ": 1548,
    "ಸರಿ": 2012,
    "ಚುಅಂ": 2241,
    "ಲಾಲ್ಚುಅಂ": 2503,
    "ಸರ್ಕಾರ": 760,
    "ೂರಾವ್": 3246,
    "ಭಾಗವನ್ನು": 3863,
    "ಕಾಣಿಸಿಕೊಂಡಿದ್ದು": 4424,
    "ಆರಂಭಕ್ಕೆ": 4100,
    "ಘ": 89,
    "ಸೋಂಕುಗಳನ್ನು": 4450,
    "ನಕಾರಿ": 3057,
    "ಎಂಬುದನ್ನು": 2600,
    "ಬರ್": 3084,
    "ಉನ್ನಿಕೃಷ್ಣ": 2568,
    "ಉದ್ಘಾಟನೆ": 2365,
    "ಡಬ್ಲೂ": 4390,
    "ಕರಿಗೆ": 2951,
    "ಬ್ರಿಗಾಂಡ್": 4824,
    "ಚುವ": 1473,
    "NW": 2815,
    "ಹೆಚ್ಚಿದ": 3955,
    "ಥೆ": 3027,
    "ಮುಖ್ಯಮಂತ್ರಿಗಳು": 839,
    "ಕೋಗಿಲು": 2169,
    "ಡ್ರಾ": 3008,
    "ವೆಡೆ": 2162,
    "ಜೆಯ": 2988,
    "ವೇಷ": 3778,
    "ಬಿಧುರಿ": 588,
    "ಟ್ಯಾ": 1176,
    "ಔಷಧಿಗಳನ್ನೇ": 4999,
    "ಆರೋಪಿ": 480,
    "ವ್ಯಾಪಾರ": 2549,
    "ಯಬೇ": 3125,
    "ಮಾಡಿಕೊಳ್ಳ": 1324,
    "ಯಲಹಂಕದ": 4654,
    "ಾನಕ್ಕಾಗಿ": 2421,
    "79": 2787,
    "ೋಶ": 3309,
    "ಕಾರ": 315,
    "ಬಾಗ": 1498,
    "ಛತ್ತೀಸಗಢದ": 4872,
    "ಮೃತಪಟ್ಟ": 967,
    "ವಿಶ್ರಾಂತಿಗಾಗಿ": 2389,
    "ಲಾಗಿದ್ದು": 3161,
    "ಗೊಂಡ": 1106,
    "ಿದ್ದಳು": 1241,
    "ದೇಶದಲ್ಲೇ": 3877,
    "ಲಾವಣೆ": 1624,
    "ಡ್": 331,
    "ಣಾ": 872,
    "ಾರಂಟಿ": 2054,
    "ಸ್ಯೆ": 2061,
    "ತಮಿಳುನಾಡು": 4651,
    "ಿಸಲಾಗುವುದು": 2206,
    "ಪೂರ್ಣ": 956,
    "ಹೇಳಿದರು": 542,
    "ಹೆಚ್": 274,
    "ri": 1847,
    "ಅಗ": 1146,
    "ಬಿಕ್ಕಿ": 1271,
    "ಗೊ": 459,
    "ಚಾಮರಾಜನಗರ": 2633,
    "ಂದನ": 3287,
    "ಈಗಾಗಲೇ": 1345,
    "ತಡೆ": 1947,
    "ಪ್ರವೇಶ": 2687,
    "ಹರೀಶ್‌ನನ್ನು": 4478,
    "ೇ": 135,
    "ಮಹಾನಿರ್ದೇಶನಾಲಯದ": 4183,
    "ಲಾಲ್": 1083,
    "ಿಸಿದೆ": 734,
    "ನಿಲ್ದಾಣ": 584,
    "ಹಳ": 886,
    "ಲ್ಲಿದೆ": 896,
    "th": 1850,
    "ನವೀಕರ": 1778,
    "ಮೀನು": 581,
    "ಆಂಪ್": 2896,
    "ಆಕೆಯ": 1447,
    "ಜೂ": 2984,
    "ಪೆ": 3060,
    "ಾಲ": 1532,
    "ಆಕ್ಷೇಪಾರ್ಹ": 1756,
    "ಕ್ಯಾಪ್ಟನ್": 4413,
    "ಕೋವಿಡ್": 1614,
    "ದ್ಯ": 338,
    "ಕಂಡುಬರುತ್ತದೆ": 4850,
    "ಪತನ": 1964,
    "ಕಾರ್ಯಾಚರಣೆಯನ್ನು": 4609,
    "ಅಧಿಕಾರಿಯ": 1689,
    "ಮಯ": 376,
    "ೆಯೊಬ್ಬ": 2092,
    "ಮ್ಮ": 314,
    "ಸೋ": 470,
    "ಕೆಲಸದ": 1309,
    "ಸಲ್ಲಿ": 2011,
    "ಅಭ್ಯರ್ಥಿ": 3931,
    "ಸಾಹಿಬಾಬಾದ್": 1416,
    "ಗ್ರಾಮ": 1171,
    "ಕಾರ್ಯಕ್ಕೆ": 3760,
    "ಿಸಲು": 475,
    "ಹೇಳ": 219,
    "ಗುರುತ": 2181,
    "ನಟ": 1186,
    "ದಿಂದಾಗಿ": 3836,
    "ಕಣ್ಣೀರಿಟ್ಟ": 4833,
    "ವರ್ಯ": 3181,
    "ಕನ್ನ": 358,
    "ನಾಗರಿಕ": 1374,
    "ನಾಮಕರಣ": 2106,
    "ಹೆಸ": 742,
    "ಪ್ರದಾಯ": 1249,
    "ಸಮಾರಂಭದಲ್ಲಿ": 1422,
    "55": 2779,
    "0": 15,
    "ಸಾಗಿಸುವ": 4529,
    "ಕಿಅಂಶಗಳು": 3543,
    "ಪತನಗೊಂಡಿದ್ದು": 2674,
    "ಇತ್ತೀಚ": 1738,
    "ಿಸಲಾಗಿತ್ತು": 2205,
    "ಬೇರೊ": 3577,
    "ಟೀಟಾಘರ್": 1776,
    "ಬೆಲೆ": 3545,
    "ವರಿ": 424,
    "ಎಲ್": 1885,
    "ವೈರಸ್‌ಗಳ": 3838,
    "ಣದ": 1178,
    "ಶಿಷ್ಠ": 2190,
    "ನಿವಾರಿಸಲು": 2424,
    "ದಕ್ಕೆ": 1183,
    "ತ್ವರಿತವಾಗಿ": 4726,
    "ಹೆಚ್ಚಿನದನ್ನು": 4231,
    "ರಾವ್": 2094,
    "ಅಳವಡಿಸಲಾಗಿದ್ದು": 4464,
    "ಬೀ": 789,
    "ಸ್ಪೀಡ್": 3692,
    "ರೆ": 195,
    "ಹರಿಬಿಟ್ಟು": 4720,
    "ಮಾರ್ಗ": 1098,
    "ವಿದ": 1035,
    "ಅಭಯಾರಣ್ಯದ": 4919,
    "ಟ್ಯ": 2999,
    "ಪಾಲರೂ": 3750,
    "ಸದ": 441,
    "ಹೌ": 3226,
    "ಕಾರಣಕ್ಕೆ": 4091,
    "ತೀವ್ರವಾಗಿ": 4097,
    "ಕಂಪ": 2957,
    "ದಲ": 374,
    "ಸೀನುವಿಕೆ": 4526,
    "ದಲ್ಲಿ": 190,
    "ಅಸಾಮಾನ್ಯವಾಗಿಲ್ಲ": 4489,
    "ಮಕ್ಕ": 362,
    "ಜೀ": 1016,
    "ಕ್ಷ್ಮ": 2148,
    "ಡಾ": 652,
    "ಕೀ": 864,
    "ಸಿಸಿ": 3216,
    "ದಿನಗ": 3466,
    "ಉದ್ಘಾಟಿಸಲಿದ್ದಾರೆ": 4058,
    "ಬೆಂಗಳೂರಿನ": 4569,
    "ಸೃಷ್ಟಿಸಿದ್ದಾರೆ": 4717,
    "ಇರುವು": 1879,
    "ಕಾಲ": 3423,
    "ಮಿಜೋರಾ": 2715,
    "ತಿಳಿದ": 907,
    "ಕೊಳಲಿದ್ದು": 3607,
    "ಂಧಿ": 2856,
    "ಕೇಟೆ": 3989,
    "ಕಿಲ್ಲ": 3541,
    "ಡ್ಡ": 3771,
    "ರತ್": 881,
    "ಕರಿಸಿದೆ": 3516,
    "\"": 5,
    "ಮಡಿವಾಳ": 4708,
    "ಬಂಧನ": 4049,
    "ವಿಭಾಗವನ್ನು": 2495,
    "ಎಚ್ಎಂಪಿವಿ": 2348,
    "ಮಾಂಸಾ": 3370,
    "ಜೆನ್": 817,
    "ಥ": 100,
    "ಗಾ": 383,
    "ಕಲ್ಪಿಸುತ್ತದೆ": 2461,
    "ಿಸಲಾಗಿದೆ": 582,
    "ಕಲಿಯಿರಿ": 2572,
    "ಒಳಗೊಂಡಿದೆ": 4378,
    "ಶಿ": 264,
    "ಸ್ತು": 903,
    "ಪುರ": 702,
    "ಉ": 77,
    "ರತ": 1985,
    "ಮಾಡಿದ್ದ": 3566,
    "ಕೋಲಾ": 3581,
    "ರಿಸಲು": 943,
    "‌": 129,
    "ಸಿದ್ಧವಾಗಿದೆ": 4451,
    "ಳಬೇಡಿ": 3169,
    "ಅವರ": 283,
    "ಸುಸ್ಥಿತಿಯಲ್ಲಿದೆ": 2718,
    "ಲ್ಯು": 1544,
    "ತಂತ್ರಗಳನ್ನು": 2431,
    "ಭಾಷೆಯಾದ": 4247,
    "ವ್ಯವಹಾರವನ್ನು": 4572,
    "ಹೈಕೋರ್ಟ್": 975,
    "ಸಂಖ್ಯೆಯನ್ನು": 2454,
    "ಯಶಸ್": 3135,
    "ಆಕರ್": 1446,
    "ಪೊಲೀ": 371,
    "ಆಸ್ಪತ್ರೆ": 633,
    "ಮೆ": 333,
    "ಸ್ವಾಭಿ": 4220,
    "ಶೀಘ್ರ": 1110,
    "ಬಳಸಲ": 4031,
    "ಪಿ": 221,
    "ಾಗುವುದು": 1557,
    "ly": 2839,
    "ರಾಯಗಡ": 3422,
    "ಕವಾಗಿ": 1166,
    "ಕಾರ್ತಿಕ": 2341,
    "In": 2809,
    "ೂಡಿ": 3245,
    "ಒತ್ತಾಯ": 2569,
    "47": 2776,
    "ಕೊಳ್ಳಲು": 4132,
    "ರಿಂದ": 366,
    "ತರಾಗಬೇಡಿ": 3804,
    "w": 69,
    "ಮಂಡಿಸುವ": 3865,
    "ಿದೆ": 167,
    "ಕಾನ್‌": 3425,
    "ಯದ್ದ": 3126,
    "ಿಸಿಕೊಂಡಿದ್ದು": 4218,
    "ಬೆಳಕಿಗೆ": 2404,
    "ಬದನಗು": 4397,
    "ಸಹಕಾರಕ್ಕೆ": 4803,
    "ನಾವಣೆ": 3437,
    "ಇದ್ದ": 646,
    "ತೇಜಸ್ವೀ": 3983,
    "ಭಾಗ": 421,
    "ನೀಡಿದರು": 1285,
    "Par": 2819,
    "ಸಿಬ್ಬಂದಿಗೆ": 4009,
    "ಪ್ರಶ್": 808,
    "ಪೀಳಿಗೆಯೆಂದು": 4048,
    "ಬಲಿಯಾಗುತ್ತಿದ್ದರು": 4653,
    "ಯನ": 3116,
    "ಉತ್ತೇಜನ": 4285,
    "ಆ": 74,
    "ರಾಜಾಜಿ": 2189,
    "ಆಕರ್ಷಿಸಿದೆ": 4642,
    "ಚುನಾವಣೆ": 3789,
    "ಕರೆಯಲಾಗುತ್ತದೆ": 4754,
    "ಪ್ರಯೋಗಾಲಯ": 2536,
    "ಮಾ": 162,
    "1ರಂದು": 2767,
    "ಪ್ರಯಾಣಿಸುವುದಕ್ಕೆ": 2330,
    "ಮೂಲಗಳು": 3787,
    "ಆದ್ಯತೆ": 4490,
    "ಪ್ರಚೋ": 1244,
    "ಸೋಂಕು": 1331,
    "ಅಲಿಯಾಸ್": 2641,
    "ಆಯೋಜ": 1871,
    "ಮಗೆ": 1977,
    "ಸಿಲ್ಕ್": 3478,
    "ಭಕ್ತರು": 2530,
    "ಪರಿಣಾ": 1694,
    "ಲೊ": 3155,
    "ವೆಂದರೆ": 3565,
    "ಾಹ್": 2025,
    "ದೂರಿನಲ್ಲಿ": 3992,
    "ಟಿಯನ್ನರ": 4010,
    "ತಂಡದಲ್ಲಿ": 4294,
    "ವಿಡಿಯೋ": 1256,
    "ದುರ್ಮರಣ": 4330,
    "ಹಿಂದೆ": 2541,
    "ಅನುಷ್ಠಾನಕ್ಕಾಗಿ": 2734,
    "ಚಿ": 212,
    "ಹಾಕ": 1107,
    "ಗೊಳಿಸ": 954,
    "ರದ್ದುಪಡಿಸಬೇಕು": 4118,
    "ಹಣಕಾಸು": 4818,
    "ಘರ್ಷಣೆ": 4389,
    "ಹೆಲಿಕಾಪ್": 681,
    "ರಿಸುತ್ತ": 1989,
    "ಾಜಿ": 2022,
    "ದರ್ಶನ್‌": 2467,
    "ಹೆ": 205,
    "ಿದ್ದೇವೆ": 904,
    "ಸಮಿತಿ": 4715,
    "ರಿಸಲಿದೆ": 3152,
    "ತ್ರಾ": 1541,
    "ಚಿಕಿತ್ಸೆ": 585,
    "ನಗು": 3053,
    "ಎಸ್‌ಬಿ": 4445,
    "ಬಜೆಟ್": 1316,
    "ಎಫ್": 1457,
    "ತೋರಿಸ": 1365,
    "ೆಯೇ": 910,
    "ಮಿಯಾ": 3701,
    "ಮೊದಲು": 4807,
    "ಕಲ": 1464,
    "ಂಜ": 2843,
    "ದಿಸಿ": 3033,
    "ಗಟೆ": 2969,
    "ಿದರು": 257,
    "ಎಸ್ಪಿ": 3798,
    "ಹೆಚ್ಚುತ್ತಲೇ": 2610,
    "ಾರೆ": 178,
    "ಬೆಂಗಳೂ": 1635,
    "ಕಡಿತಗೊಂಡ": 2524,
    "ತಿಳಿಸಿದ್ದಾರೆ": 516,
    "ಬದಲ": 1500,
    "ವಿಡ್": 1578,
    "TNIE": 2828,
    "ಪಾತ್ರ": 2227,
    "ಬಂಗಾಳ": 2281,
    "Chrome": 2560,
    "ಮಧ್ಯಾಹ್ನ": 2738,
    "ಬೇಕಾಗಬಹುದು": 4175,
    "ಹೋಗಿದ್ದಾಗಿ": 4260,
    "ದರೂ": 1297,
    "ಲಕ್ಷಕ್ಕೂ": 3884,
    "X": 48,
    "ಧರ್ಮಾಧಿಕಾರಿ": 4074,
    "ರೇಣುಕಾಸ್ವಾಮಿ": 1825,
    "್ರಾಂ": 486,
    "a": 51,
    "್ಮಿ": 2034,
    "ಕೆಎಸ್": 1566,
    "ಕೈಗಳನ್ನು": 4124,
    "ಮಾರ್ಕ್": 3796,
    "ಅಡೆ": 1442,
    "ಇಂಜಿನಿಯ": 2413,
    "ನಗೊ": 1636,
    "ಸ್ಥಾನ": 3671,
    "ಜಿಲ್ಲ": 933,
    "ನೀಡಿರುವುದನ್ನು": 2353,
    "ತೊ": 1483,
    "400": 2777,
    "ಚಿಕೆಯನ್ನು": 3532,
    "ಾಗುತ್ತಿರುವ": 3784,
    "ನಿಂತ": 2080,
    "ಏನೆಲ್ಲಾ": 4989,
    "ಕುರಿ": 923,
    "ಣ": 98,
    "ಅರಣ್ಯ": 980,
    "ನೇಮಿಸಿದೆ": 3747,
    "ಸೇರಿದಂತೆ": 520,
    "ಸಂಗ್ರಹ": 984,
    "ಡೂ": 3004,
    "ಐ": 82,
    "ಮಾಡಲಾಗುತ್ತಿದೆ": 2500,
    "ಹೆಸರುವಾಸಿಯಾಗಿದೆ": 4227,
    "ನವೀಕರಣಗಳನ್ನು": 4392,
    "ಕಮಲಾ": 4380,
    "ಆರ್‌": 1088,
    "ಕಾಯಿ": 2097,
    "ಡಬ್ಲ್ಯುಹೆಚ್": 4629,
    "1946": 4797,
    "ಮತ್ತ": 1028,
    "ಯಗಡ": 3136,
    "ನೌಕರರ": 4366,
    "ಬಳಿಕ": 4030,
    "ಾಹಿ": 3233,
    "ತೂಗುದೀ": 4508,
    "ನಾಯಕರಾಗಿ": 4602,
    "ವಾಗುತ್ತ": 2004,
    "ಗದಲ್ಲಿ": 2966,
    "ರಂದು": 883,
    "H": 34,
    "ಮೇಲ್ದರ್": 1680,
    "ಅಂಶಗಳು": 1755,
    "ಸಂಶೋಧನಾ": 1820,
    "ಿಸುತ್ತೇನೆ": 2217,
    "BW": 2798,
    "ನಟಿ": 3051,
    "ಆಧಾರ": 996,
    "ಇದಲ್ಲದೆ": 4025,
    "500": 4158,
    "ತೀರ್ಣ": 2298,
    "ಹೇ": 799,
    "ಜ್ಞಾನ": 1368,
    "ೋಲನದ": 2055,
    "ಿದ್ದನ್ನು": 2062,
    "ಲ್ಲ": 144,
    "ಕೊಲೆಯ": 2174,
    "ಸಂಸದರಾಗಿದ್ದಾಗ": 2497,
    "ಹೊಮ್ಮ": 3660,
    "ಸಂದರ್": 767,
    "ನ್ಯಾಯಮೂ": 1784,
    "ಶುರುವಾಗಿದೆ": 4308,
    "I": 35,
    "ಇವರಿಬ್ಬರಿಗೆ": 4969,
    "ುತ್ತ": 177,
    "ನಾ": 180,
    "ಪನೆ": 3064,
    "ೀಡ": 1233,
    "ವರಿಗೆ": 1524,
    "1996": 4801,
    "ವಿದ್ಯಾರ್ಥಿನಿ": 2740,
    "ಸೌರ": 3974,
    "ಏಮ್": 2931,
    "ರುವಾದ": 3286,
    "ಅಂಕಿಅಂಶಗಳು": 4060,
    "ಕೃ": 1163,
    "ಕೋಪಯೋ": 3585,
    "ಿಸಿವೆ": 3683,
    "ಎಂಬಾ": 3591,
    "ಮೊದಲ": 703,
    "ಜಾಮೀನು430": 4096,
    "ಟ್‌ಲಾಂಗ್": 3759,
    "ಹಳದಿ": 1128,
    "ತ್ರ": 252,
    "ಕಾರ್ಯಗಳಿಗೆ": 2232,
    "ಕಣ್ಣು": 2436,
    "ಯುವುದು": 3774,
    "ನಾಚಿಕೆಗೇಡಿನ": 2692,
    "y": 70,
    "ಅಂತಹ": 1862,
    "ದಲ್ಲ": 717,
    "ರಡ": 327,
    "ಹಿನ್ನೆ": 1284,
    "ಬಸ್ತಾರ್‌": 4206,
    "ಉಲ್ಲೇಖಿಸಿದ": 4888,
    "WHO": 2829,
    "ವ್ರ": 659,
    "ಂಬ": 455,
    "ವಿಗೆ": 2087,
    "ರಾಷ್ಟ": 1581,
    "ಹುಡು": 2245,
    "ರಲಿಲ್ಲ": 2587,
    "ಕರಾ": 1007,
    "ಪಡೆದಿದ್ದು": 4598,
    "ವಿಧಾನಸಭೆ": 4906,
    "ಮನೆಯ": 1647,
    "ಣನೆ": 3014,
    "ಬಿಸಿನೆಸ್": 4707,
    "ಕಾಡಿನ": 3426,
    "ಮನೆಯೋಳಗೆ": 4576,
    "ಹೇಳುತ್ತವೆ": 3551,
    "ನಾಂದಿಯಾಡಿದೆ": 2693,
    "ನೇಯದ್ದ": 3748,
    "ಸರಿಹೊಂದಿಸುತ್ತೇವೆ": 4714,
    "ಲ್ಲರೂ": 3301,
    "ಮುಂದುವರಿದ": 4879,
    "ಕ್ಯಾಮರಾ": 4411,
    "ಐಸಿಎಂಆರ್": 2659,
    "ಎಂಪಿವಿಯ": 2356,
    "ಸಂದರ್ಭ": 849,
    "ಫ್ಲೂ": 3998,
    "ಸಭಾಭವನದಲ್ಲಿ": 4313,
    "ಅವರು": 255,
    "ದ್ಧ": 337,
    "ದು": 185,
    "ಪತ್ತ": 786,
    "ದ್ದ": 277,
    "ಕುವ": 1902,
    "':": 2758,
    "ಪ್ರಗತಿಯ": 2072,
    "ಏರಿಕೆಯಾಗಿದೆ": 4199,
    "ಇಟ್ಟಿದ್ದ": 4492,
    "ಇತ್ತು": 2899,
    "ಗೆಳೆಯ": 3323,
    "ನಿವಾರ": 810,
    "ಯಾದ": 2113,
    "ಮಾಲೀಕರಿಗೆ": 4732,
    "ದರ್ಜೆಯ": 3993,
    "ಬ್ರಾಂ": 3093,
    "ಗತಿಯ": 868,
    "ಮಾಡಲಾಗಿದೆ": 2166,
    "ಹಿರಿಯ": 3620,
    "ಾಗಿದ್ದ": 1052,
    "ಭಾರತವು": 3855,
    "ಫ್ಲುಯೆಂಜಾ": 4596,
    "ಇಳಿಯುವಾಗ": 4976,
    "ಏಜೆನ್": 1459,
    "ಕಗಳು": 2948,
    "ರೇ": 377,
    "ಸ್ಪೀಕರ್": 3693,
    "ರಾಷ್ಟ್ರಪತಿ": 4658,
    "ಾಚಾರ": 3234,
    "ಬಲಿಯಾಗುತ್ತಿರುವುದು": 2628,
    "ಬಲ್": 3083,
    "ಮಹತ್ವ": 2242,
    "ಒಡಿ": 2939,
    "ಪ್ರಹ್ಲಾದ್": 1411,
    "ಮಧ್ಯರಾತ್ರಿ": 2416,
    "ಗಡ": 2960,
    "ನನ್ನ": 1022,
    "ಪ್ರಶ್ನಿಸಿದರು": 4190,
    "ಮಾಲೀ": 2076,
    "l": 59,
    "ಂಸ": 2846,
    "ವ್ಯವಸ್ಥ": 2507,
    "ಥ್": 3028,
    "NWKRTC": 4936,
    "ಸ್ವತಃ": 4315,
    "ಹೆಚ್ಚ": 513,
    "ಪ್ರಕರಣಗಳನ್ನು": 1303,
    "ಮಟ್ಟ": 1507,
    "2015": 3737,
    "ಚಾಮರಾಜನಗರದ": 4663,
    "ಅರ್": 1147,
    "ದೂರದ": 1692,
    "ವಲ್ಲ": 3175,
    "ವಾದವು": 3912,
    "ಜೂರು": 1921,
    "ಎತ್ತಿ": 2926,
    "ವಿರುತ್ತದೆ": 3397,
    "ಲ್": 136,
    "ಉಲ್ಲೇಖ": 2655,
    "ಕಣ": 2946,
    "ಹೇಳಿಕೊಂಡ": 3548,
    "‌ಸಿ": 3256,
    "ಹೇಳಿಕೆಯ": 3891,
    "ಎದುರು": 4497,
    "ಕ್ಷಿ": 1073,
    "ುತ್": 3243,
    "ಸರದಿಯಲ್ಲಿ": 2399,
    "ರು": 139,
    "Sc": 2822,
    "ಅ": 73,
    "50ಕ್ಕೂ": 4159,
    "ಜೀವನದುದ್ದ": 4292,
    "ತೆರಳ": 4769,
    "ಸ್ಪರ್ಶಿಸಬೇಡಿ": 4775,
    "ಬೆಂಗಳೂರು": 301,
    "ಅಡಗುತಾಣಗಳ": 4882,
    "ಹೊಗೇನೆಕಲ್‌ನಿಂದ": 4470,
    "ತಂದೆ": 1356,
    "ವಿದ್ಯಾರ್ಥಿ": 2489,
    "ೀಕರಣ": 3291,
    "ಎಚ್": 596,
    "ಮನೋಹರ್": 1789,
    "ಮಾತ್ರ": 1570,
    "ಧ್": 1958,
    "):": 2759,
    "ಪಡೆಯ": 510,
    "ವಿಶ್ರಾಂ": 696,
    "ಕೋ": 231,
    "ಆತ್": 712,
    "ಹೊಸ": 621,
    "ವನ್ಯಜೀವಿ": 1814,
    "DS": 2802,
    "ತಿದೆ": 3018,
    "ಸ್ನೇ": 3336,
    "ಕೊಡಲು": 3605,
    "ನಗೃಹದ": 3694,
    "ಾಗುತ್ತಿದ್ದಾರೆ": 3782,
    "ಕೈಟಿಸ್": 4126,
    "ಲಂ": 1519,
    "ಜಿಗ್ಮೆ": 2711,
    "ಗೈದು": 3325,
    "ತೆರಿಗೆ": 3644,
    "ಹತ್ಯೆಯಾಗಿದ್ದು": 4724,
    "ಉಸ್ತ": 2918,
    "ಫಲಕಾರಿಯಾಗ": 4396,
    "ಉಸಿ": 860,
    "ಭಾಗವಹಿಸಿದ್ದರು": 4447,
    "ಸ್ವಾಗ": 3339,
    "ಅಪರಾಧದ": 4671,
    "ಕಲ್ಪ": 945,
    "ಬೂಮ": 3096,
    "ಪೋರಬಂದರ್": 1701,
    "ಎಆರ್‌": 2928,
    "ಪ್ರಾ": 1054,
    "ಹೇಳಿಕೆಗೆ": 1688,
    "ವರ್ಷಗಳಲ್ಲಿ": 1666,
    "ವಾರಾಹಿ": 3813,
    "ತಜ್ಞರು": 2580,
    "ಂಕರ್": 2854,
    "ಚಲಿಸುತ್ತದೆ": 2526,
    "ಛತ್ತೀ": 1475,
    "ಂಜಾ": 2855,
    "ಭಾರತಕ್ಕೆ": 3856,
    "ಘಟಕ": 2976,
    "ಪಡೆಯಲಿದ್ದಾರೆಂದು": 4806,
    "ಸರಿಸಲು": 3223,
    "ವಾಗಿದ್ದಾರೆ": 3940,
    "ಕೊಂಡ": 579,
    "ಸಾಂಸ್ಕೃ": 4229,
    "IDSP": 4933,
    "ಪ್ರಯತ್ನದ": 4538,
    "ವಿಚ್ಛ": 3398,
    "ನಾಲಯ": 1587,
    "ಹಿಂದಿ": 3617,
    "ಕೈಗೊಂಡ": 4125,
    "ಚಾನೆಲ್‌": 2311,
    "ಘಾತ": 942,
    "ಾಯಿತು": 3797,
    "ಏಕಾಏಕಿ": 2657,
    "ರುವು": 427,
    "ಆಗಮ": 962,
    "ಇಟ್ಟುಕೊಂಡ": 2652,
    "ಸಲ್ಲಿಸಿದ್ದಾರೆ": 4212,
    "ಪ್ರಗತಿಯಲ್ಲಿದೆ": 4730,
    "ಜರಿ": 2986,
    "ಒಗೆ": 2938,
    "ದಾಖಲ": 763,
    "ಸಾಗಿಸಲಾಗುತ್ತದೆ": 4530,
    "ರೊಂದಿಗೆ": 1517,
    "ರಾಜ್ಯಪಾಲರೂ": 3814,
    "ಜನಿಸುತ್ತಾರೆ": 3614,
    "ನಕ್": 655,
    "ರಹಿತ": 2588,
    "ಮಕ್ಕಳು": 692,
    "ಹಂಚಿಕೆಯನ್ನು": 4404,
    "ಸೆ": 504,
    "ನೆ": 198,
    "ಗಳ": 142,
    "ಮೊದ": 2325,
    "ಸಂಪರ್ಕದಿಂದ": 4192,
    "ಪೋರಬಂದರ್‌ನ": 4600,
    "ವೃದ್ಧರನ್ನು": 4016,
    "ಹೋಲಿಸಿದ": 4039,
    "ಮುಖ್ಯಮಂತ್ರಿ": 492,
    "ಂಗಡಿ": 2861,
    "ಹಿಂಸೆ": 3621,
    "ಇವರ": 2900,
    "ನಡುವ": 928,
    "ಪ್ರಚೋದನೆ": 1786,
    "ದೇಹಗಳು": 3590,
    "ಅತಿಯಾದ": 4022,
    "ಪರಿಸ್ಥಿತಿ": 4266,
    "ರಾಜೇಶ್": 3665,
    "ಾಗಿದ್ದರು": 1556,
    "ಕಿಲೋವ್ಯಾ": 4085,
    "ಆಕ್ರಂದನ": 4678,
    "ಇರುವುದರಿಂದ": 4972,
    "ಿಸ್": 612,
    "ತಜ್ಞ": 1487,
    "ಕಾರಣವಾಗಿದೆ": 2383,
    "ಶ್ರಿತರ": 4312,
    "ನಾಯಕನ": 4457,
    "ಸಮಸ್ಯೆ": 2327,
    "ಬಿಡಬ್ಲ್ಯು": 3529,
    "ಮಾತನಾಡುವುದು": 3947,
    "ವಹಿಸಲಿ": 3810,
    "ಃ": 72,
    "ಆಸ್ಪತ್": 488,
    "ಹೆಲಿಕಾಪ್ಟರ್‌": 4108,
    "ವೇಳ": 660,
    "ಕೆಮ್ಮು": 2068,
    "ಅಧಿಕ": 552,
    "ರಣೆ": 1033,
    "ನ": 103,
    "ಬಿಜೆಪಿಯ": 1715,
    "ತೆಗೆದು": 2354,
    "280": 2771,
    "ಗಿರುವ": 1630,
    "ಮಾಡಿದೆ": 1078,
    "ಜಿತ್": 1632,
    "ಕೋಲ್ಕತ್ತಾದ": 2706,
    "ವಲಂ": 3187,
    "‌ನಿಂದ": 1048,
    "ಯವರು": 1984,
    "ತೆಗೆದುಕೊಂಡ": 2355,
    "ಿಸಿಕೊಳ್ಳ": 1237,
    "ಗುರಿ": 3628,
    "ಪರಿಗಣ": 3996,
    "ಜ್ವರ": 1315,
    "ಗುಂಪು": 3631,
    "ಚಿಸಲಾಗಿದೆ": 1914,
    "ವ್ಯಕ್ತಿಗಳೊಂದಿ": 4590,
    "ಗಂಭೀರ": 2664,
    "ೀಪುರ": 3293,
    "ಇನ್‌ಫ್ಲುಯೆಂಜಾ": 4971,
    "ಸಂದರ್ಭದಲ್ಲಿ": 1126,
    "ಂದ": 140,
    "t": 66,
    "ರೀತಿಯ": 1670,
    "ಕೋರಿದ್ದ": 4562,
    "ಜಿದ": 1918,
    "ಎಂ": 234,
    "ಇಟ್ಟಿದ್ದರು": 4494,
    "ಕೂ": 648,
    "1ಕ್ಕೆ": 2766,
    "14": 775,
    "ದಾಖಲೆಯನ್ನು": 4144,
    "ಯತ್": 1204,
    "ಎಸ್‌": 1311,
    "ಕಂಡುಬಂದರೆ": 4383,
    "ಸಮಾರಂಭ": 1339,
    "ದಂತ": 1490,
    "ಣೆಯನ್ನು": 1938,
    "ರೂಪಾಯಿಗೆ": 3851,
    "ಸೌ": 533,
    "ಕನ್ನಡ": 381,
    "ಬಂಡಿಕೆ": 2280,
    "ತ್ತ": 149,
    "ಅಗತ್ಯತೆ": 2555,
    "ಹೇಳಿಕೆಗಳನ್ನು": 3980,
    "ಯಲ್": 3117,
    "ನೇ": 318,
    "ಅನುಕೂಲಕ್ಕೆ": 2634,
    "ಂತೆ": 280,
    "ಜೋ": 1920,
    "9ರ": 2792,
    "ಸೇವೆಗಳ": 1764,
    "ದಿರುವುದಾಗಿ": 3469,
    "ರೀತಿಯಲ್ಲಿ": 2607,
    "ಭಕ್ತರ": 2529,
    "ಚಿಸಲು": 2980,
    "ಗುರುತಿಸಲಾಗಿದೆ": 4765,
    "ಹೆಂಚು": 2138,
    "ಬೇಕೆಂದರೆ": 3578,
    "1964": 4798,
    "ಸುದ್ದಿಗಳು": 4573,
    "6ರ": 2781,
    "ೆಯ": 166,
    "ಯಿಸುತ್ತ": 3127,
    "ಸುಪ್ರೀಂಗೆ": 4277,
    "ಸ್ಥಳ": 451,
    "ಪತ್ತೆಯಾಗಿತ್ತು": 2513,
    "ಊರಿಗೆ": 2920,
    "ೆಯಲು": 1579,
    "ಸಲಹೆಯ": 2350,
    "ಜನತೆಗೆ": 3612,
    "1995": 4800,
    "ಅಲ್ಲಿ": 2868,
    "6ಕ್ಕೂ": 2784,
    "ಲೋಡಿಂಗ್": 3938,
    "ಶಸ್ತ್ರಾಸ್ತ್ರಗಳನ್ನು": 4712,
    "ವಿಧಾನ": 2690,
    "ಮಾಡಲ": 1077,
    "ಸಿಂ": 917,
    "ನಿನ್ನೆ": 2082,
    "ಲೇನ್‌": 2243,
    "ಶಿಬಿರದಲ್ಲಿರುವ": 4861,
    "ಸಜ್": 3219,
    "ಪೊಲೀಸರು": 693,
    "ದೇಶಿಕ": 3876,
    "ಆಸ್ಪತ್ರೆಗಳಲ್ಲಿ": 2360,
    "ರೂಪಿಸಲಿದ್ದು": 3849,
    "ಏಕೆ": 1157,
    "ಲಿಕಾಪ್": 680,
    "ja": 1433,
    "ೆಷಾ": 2032,
    "ಮಾಹಿತಿ": 1390,
    "ದೂರು": 1491,
    "ದೂರಿನ": 2336,
    "್ಯರ್ಥಿ": 3351,
    "ಪ್ರಕರಣಕ್ಕೆ": 3740,
    "ದೊಡ್ಡ": 4704,
    "ಅಂತ": 1149,
    "ಹಂಚಿಕೊಳ್ಳಲು": 4902,
    "ಕ್ಕ": 254,
    "ಹಿಂದಿನ": 1080,
    "ಚ": 90,
    "h": 56,
    "ಕಲ್ಪಿಸಲಾಗಿದೆ": 2460,
    "ಆಗಮಿನ": 3986,
    "ಪ್ರಶ್ನಿಸಿ": 1127,
    "ಮೆಟಾ": 2234,
    "ರುದ್ಧ": 894,
    "ಓರ್ವ": 2944,
    "ಸ್ತ್ರೀದ್": 4537,
    "ತಂತ್ರಜ್ಞಾನದೊಂದಿಗೆ": 4463,
    "ೇಶಿ": 2044,
    "ಸಾ": 222,
    "ತೇ": 527,
    "ಎಂಎಲ್‌": 3592,
    "ಸಿದ್ದಾಪುರ": 941,
    "ವಿವಿಧ": 3399,
    "ಾಗಿರುವ": 1592,
    "ಡಾಂಬರೀಕರಣ": 2371,
    "ಬಿಜೆಪಿ": 709,
    "01": 2762,
    "ಗದ": 419,
    "ಅಲ್ಲದೆ": 1150,
    "ಮ್": 241,
    "ಮಗು": 565,
    "ಬಂದಿದೆ": 695,
    "ರಾಷ್ಟ್ರ": 1818,
    "ನೀಡಿತು": 4042,
    "Bet": 2799,
    "2035ರ": 4776,
    "ಟಿಯನ್": 965,
    "ಮನ್ನಣೆ": 2678,
    "ತಮ್ಮ": 435,
    "ಭದ್ರ": 1201,
    "ಈಡೇರಿದೆ": 4977,
    "ಮಹದೇಶ್": 3790,
    "ಗಡಿ": 867,
    "ಪ್ರಾಣ": 4317,
    "ಯಲಹಂಕಕ್ಕೆ": 2629,
    "ಿಪ್‌": 3242,
    "ಪ್ರಯತ್ನವನ್ನು": 4540,
    "ವನ್ನಾಗಿ": 2006,
    "ರಿ": 161,
    "ಿಸಬೇಕು": 1553,
    "ಔತಣ": 1805,
    "ನಾಯಕರು": 4082,
    "ವೃತ್ತಿ": 1676,
    "ಜಡೇ": 2993,
    "ವ್ಯಕ್ತಪಡಿಸುತ್ತೇನೆ": 4153,
    "ಸಿಂಗ್": 4224,
    "ಸಾಕ್ಷಿ": 3558,
    "25ನೇ": 2257,
    "ಹೊಂದಿಲ್ಲ": 4435,
    "ರದ್ದುಗೊಳಿಸ": 2397,
    "ಉದಾರರಾಗಬೇಡಿ": 4978,
    "ಮಾಡಿ": 429,
    "ಜಯ": 1916,
    "ಂನ": 2845,
    "ೂಮ": 1536,
    "ಿದ್ದಕ್ಕೆ": 3346,
    "ಸಂಸ್ಥೆಯ": 4749,
    "ದೋ": 1489,
    "ಇಲಾಖೆಯು": 2616,
    "ಕಳ್ಳ": 1167,
    "ವೈಯಕ್": 3602,
    "ಭಕ್": 1200,
    "ವೈದ್ಯರು": 1673,
    "n": 61,
    "gl": 1844,
    "ಭೇಟಿಯಾಗಿ": 4207,
    "ಯೋಜನೆಗಳ": 2386,
    "ಸಾವಿರಾ": 3564,
    "ಎಂದಿ": 2925,
    "ಎಂದಿಗೂ": 4988,
    "ರುವುದಾಗಿ": 1393,
    "್ಯಾ": 670,
    "ಂಕಿ": 2849,
    "ಸ್ಥಾಪನೆ": 4773,
    "ಶಿಯಲ್": 3668,
    "ಉಲ್ಬಣವನ್ನು": 4637,
    "ಯತ್ನಿಸುತ್ತಿದ್ದಾರೆ": 4474,
    "&": 6,
    "ಪ್ರಧಾನಿ": 476,
    "HMP": 707,
    "ಚಿಕ": 523,
    "ಅಸಭ": 2875,
    "ವಯ": 1211,
    "ಮೈದಾನಕ್ಕೆ": 4169,
    "ಭಾಗವಹ": 1320,
    "ರೋಗಲಕ್ಷಣಗಳನ್ನು": 4333,
    "ಕಣ್ಗಾವಲು": 2438,
    "ಪ್ರದೂಷ್": 4729,
    "ಪತನಕ್ಕೀಡಾಗಿದ್ದು": 4705,
    "ಲರೂ": 3159,
    "ನಮಗೆ": 3059,
    "S": 44,
    "ಕರಾವಳಿ": 1133,
    "ಕಾಯಬೇ": 3430,
    "ಬೇಸರ": 3576,
    "ನಡೆದ": 759,
    "ಅಲ್ಲಲ್ಲಿ": 4946,
    "ಧರ": 1957,
    "ಪ್ರತಿನಿಧಿ": 1125,
    "ಬಹುದಾದ್ದರಿಂದ": 2283,
    "ಮೇಲ್ವಿಚಾರಣೆ": 2303,
    "ಕುತ್ತ": 2947,
    "ಉದ್ದವನ್ನು": 4287,
    "ಸಂಕಿ": 2123,
    "ಆಗಮಿಸಿರುವುದಾಗಿ": 2622,
    "ಹಂ": 1218,
    "ಸಾಮಾಜಿಕ": 1711,
    "ರಾಜಕೀಯ": 1294,
    "ೇಶ್": 2043,
    "ಭೇದಿಸಲು": 4208,
    "ಅವನು": 2107,
    "P": 42,
    "ಣಿಯಲ್ಲಿ": 4391,
    "ಲಕ್ಷ್ಮಣ್": 2726,
    "ಭಾರತದ": 3854,
    "ಕಾರ್ಯಕ್ರಮಗಳು": 4240,
    "ಅಧಿಕೃತ": 3984,
    "ಗ್ರಾಮದಲ್ಲಿ": 4386,
    "ರಿಕೊಂಡ": 3368,
    "ರಂತೆ": 3145,
    "ಧಕ": 3040,
    "ಮೌನವನ್ನು": 4400,
    "ಶಿಕ್ಷೆಯೂ": 4136,
    "ಮಾಡಿತ್ತು": 3872,
    "ಜ್": 373,
    "ನಾದಲ್ಲಿ": 1261,
    "ಪರಿವರ್ತನ": 3997,
    "ಲೋಕಸಭಾ": 3937,
    "ಿಕೊ": 325,
    "ಎಲ್ಲಾ": 1346,
    "ಭಾವದ": 3734,
    "ಶಿಷ್ಠಾಚಾರ": 4771,
    "ಮೌಲ್ಯಗಳಿಗೆ": 4633,
    "ಪ್ನ್ಯೂ": 3637,
    "ದಿನೇ": 3467,
    "ಣಗಳನ್ನು": 1937,
    "ೌಸರ್": 2033,
    "ಬಹು": 438,
    "ಅನಾರೋಗ್ಯದಿಂದ": 4639,
    "ನಾವು": 914,
    "ಬಾಡೂ": 3831,
    "ಶಾಲೆಯಲ್ಲಿ": 3969,
    "ದಿ": 193,
    "Ae": 2796,
    "PWD": 2636,
    "ಕೊಡಲಾಗುತ್ತದೆ": 3606,
    "ಹೊಗೇನೆಕಲ್‌ನಲ್ಲಿ": 4469,
    "ಉದ್ದೇಶಗಳಿಗಾಗಿ": 4618,
    "75": 1834,
    "ಬೋಗಿಗಳ": 1769,
    "ಕಾರ್": 572,
    "ಸೂಚಿ": 3833,
    "ಿ": 119,
    "ವನ್ನ": 2003,
    "ಕಲ್ಕಾಜಿ": 1318,
    "ಮೇಲ್ನೋ": 2302,
    "ಕಳೆದುಕೊಂಡಿದ್ದಾರೆ": 4593,
    "ಶಸ್": 2008,
    "ಅಭಯಾರಣ್ಯದಲ್ಲಿ": 4920,
    "ಒಂದೆರಡ": 4995,
    "ನಾಂದಿ": 2103,
    "ಮುಂಬ": 1606,
    "ವಿವಾ": 3393,
    "ಕರೆ": 1008,
    "ತನ್ನೊಂದಿಗೆ": 4205,
    "ಸಂದರ್ಭಗಳಲ್ಲಿ": 4187,
    "ಜನ್": 2985,
    "ಮಂಡಳಿ": 1322,
    "ಸಫಾರಿ": 845,
    "ಸಮಾಜದ": 4477,
    "ಸಂದ": 608,
    "ಲಕ್ಷ್ಮ": 2284,
    "ದೂರಿನನ್ವಯ": 2731,
    "ಮಕ್ಕಳನ್ನು": 4348,
    "ಕಾಣಬಾರದು": 4423,
    "ಾಯುದ್ಧ": 1612,
    "ಧನ್ಯ": 3044,
    "ಅಪಘಾತಕ್ಕೀಡ": 4672,
    "ಷ್ಟ": 330,
    "ರುತ್ತದೆ": 847,
    "ಕೋರ್ಟ್‌": 2331,
    "ಕೊನೆಗೂ": 3608,
    "ಾಯ": 229,
    "ಮಾಡಿರಬಹುದು": 3875,
    "ಇನ್ನೇ": 2907,
    "ಗ್ರಹಿಕೆಯ": 3903,
    "ಶಿಕ್ಷಣ": 1359,
    "ವರದಿ": 1295,
    "ಹನ": 1531,
    "ಲಯ": 406,
    "ಕವ": 1900,
    "ಕನ್ನಡವಾಗಿರಬೇಕು": 3824,
    "ದಿದೆ": 1953,
    "ಿಸುತ್ತೇವೆ": 3728,
    "'": 7,
    "ಅಮೆ": 2871,
    "ಪೋಷಕರ": 4599,
    "ನ್ಯೂಮೊವೈರಸ್": 4140,
    "ಕ್ಷೇತ್ರದಿಂದ": 4257,
    "ಅತಿ": 590,
    "ಇದರಿಂದ": 2347,
    "ಊರಿನ": 2921,
    "ಸಾಂ": 924,
    "ಚೆ": 1015,
    "ಕಳ್ಳತನ": 1400,
    "ಿಲ್ಲ": 2027,
    "ನೋವು": 2393,
    "ಘ್ರ": 1014,
    "ಟ್": 171,
    "ವೈರಲ್‌": 2540,
    "ಒತ್ತು": 1897,
    "ಹೊರಗಿರುವ": 1735,
    "ಕ್ರಮೇಣವಾಗಿ": 3899,
    "ಪ್ರತಿಬಿಂಬ": 2316,
    "ಸುತ್ತ": 3212,
    "ಬಳಸುತ್ತ": 4033,
    "ಶೋನಿಂದಾಗಿ": 2287,
    "ಲಿಫೈ": 3504,
    "ಕೇ": 554,
    "ಚಾನೆಲ್‌ಗಳ": 2730,
    "ಕಲಿತಿದೆ": 4503,
    "ಿಸುವ": 613,
    "ಾಗಬಹುದು": 3318,
    "ಿಸಬೇಡಿ": 3303,
    "ನಿಲ್ದಾಣಗಳನ್ನು": 4019,
    "ಶೀತ": 2340,
    "ಮಗುವಿಗೆ": 2339,
    "ಅನಾರ": 1444,
    "ಸೋಮವಾರದಿಂದ": 4099,
    "ನಿಮಿ": 3377,
    "ರಷ್ಟು": 3150,
    "ದಲ್ಲೇ": 1115,
    "ಬ್ಬರಿಗೆ": 3715,
    "ಧರ್ಮ": 972,
    "ಬದ": 1195,
    "1": 16,
    "ರೋಗನಿರೋ": 4334,
    "ಹಣಕಾಸಿನ": 4819,
    "ಭಾಗವಹಿಸಿದ್ದವು": 4448,
    "150": 1337,
    "ಅಹಮದಾಬಾದ್": 2640,
    "ವಿಚಾರಣಾ": 4005,
    "ದುರ್": 1066,
    "ಾಗಿ": 187,
    "24": 2769,
    "ಮನೋ": 1301,
    "ಪ್ರಿಯಾ": 3364,
    "ಜೀವಿ": 1759,
    "ಾರಿಯನ್ನೂ": 4044,
    "ಸ್ಪೆಷಾಲಿಟಿ": 2712,
    "ನಡೆಸಿದ್ದಾರೆ": 4580,
    "ೀಗ": 1232,
    "ಆದ್ಯ": 1445,
    "ಕದ್ದು": 2953,
    "ಬಿಎಂಟಿಸಿ": 2700,
    "ಸ್ಟೆ": 3340,
    "ತೀವ್ರತರವಾದ": 4098,
    "ಘಟನೆಯಲ್ಲಿ": 1729,
    "ಲಾಲ್ಚುಅಂವ್ಮಿ": 2741,
    "T": 45,
    "2012": 3739,
    "ಗೇಮ್‌ಗಳು": 3933,
    "ಒಪ್ಪಿಕೊಳ್ಳಲಾಗಿದೆ": 4501,
    "ಪೀಳಿಗೆಯು": 837,
    "ಿಯಾ": 3239,
    "ಮಾರ್ಚ್‌ನಲ್ಲಿ": 4791,
    "ogl": 1846,
    "ನಿರ್ಧರ": 2230,
    "ವಾಗ": 501,
    "ಎಂಪಿ": 432,
    "ಭಾಷಣ": 3921,
    "ಗಮನಿಸಿದಾಗ": 4202,
    "ಹೇಳಿದೆ": 744,
    "ಪವಿ": 1495,
    "u": 67,
    "ಣ್ಯ": 1480,
    "ಅರಣ": 857,
    "ನಡೆ": 396,
    "ಶಾಸ": 2326,
    "PW": 1839,
    "ಗಾಗಿ": 496,
    "ಬಿಹಾರ": 3528,
    "ಶ": 114,
    "ವ್ಯಾಪ": 1360,
    "ಎಂದಿದ್ದಾರೆ": 4196,
    "ಶೀಘ್ರದಲ್ಲೇ": 1394,
    "ಕ್ರವಾರ": 3898,
    "ಹರ್ಷ": 4405,
    "ನೆಯ": 785,
    "ಮುಂದಿನ": 2155,
    "ಪ್ರಾರಂಭ": 1056,
    "ವೂ": 2002,
    "ಒಪ್ಪಿಕೊಂಡಿದ್ದು": 4869,
    "ಹೋ": 609,
    "ಮಾಡಿರುವ": 1672,
    "ಗಿ": 271,
    "ಾಯಿಸಿಕೊಂಡಿದ್ದಾರೆ": 2167,
    "ಅದನ್ನು": 1863,
    "ಂಡ": 200,
    "ಹತ್ಯ": 2020,
    "ಿತಿಯ": 610,
    "ನಾಡ": 478,
    "ಮಾನ": 809,
    "ಸುಧಾರ": 2211,
    "ವಿಸ್ತೀರ್ಣ": 2534,
    "ನಿಕಿ": 1250,
    "ಶ್ರಮ": 1760,
    "ಪ್ರಯು": 3361,
    "ಹಾಲಿನ": 3910,
    "ಾ": 118,
    "ಆಯ": 2881,
    "ಅಭಿಪ್ರಾಯ": 4053,
    "ಆದ್ಯತೆಯ": 2565,
    "ಹಾಕಿದರು": 4354,
    "ಸಂಸದರ": 1069,
    "ವಲ್ಲದೆ": 3185,
    "1965": 4799,
    "ಮಾತನಾಡುವವರ": 2317,
    "ಕೆಗಳು": 2064,
    "ಪರಿಶೀಲ": 2337,
    "ಯ": 109,
    "ಿಸುವವರೆ": 4040,
    "ವಿರೋಧಕ್ಕೆ": 4834,
    "ಭವನಗಳಲ್ಲಿ": 1731,
    "ಪ್ರವಾಸಿಗ": 705,
    "ಶಾಸಕರಾಗಿರುವ": 4810,
    "ಭವನಗಳಿಗೆ": 4168,
    "ರಿಗೆ": 329,
    "ಕಮ": 1162,
    "ಇನ್ನೂ": 1452,
    "ಮಾರ್ಕಿಂಗ್": 2247,
    "ಿಸಲಿದ್ದಾರೆ": 1640,
    "ದಕ್ಷ": 3030,
    "ಗಲಿದೆ": 2970,
    "ನಿಧಿ": 3382,
    "ವೀರಪ್ಪ": 1342,
    "ಅಡ": 1855,
    "ಥಮ": 876,
    "ಸಿದ್ದ": 340,
    "ೆಯಡಿ": 3401,
    "ಜಸ್": 524,
    "ಲಭ್ಯವಿರುವ": 1794,
    "ಏನು": 1005,
    "ಎರಡನೇ": 3859,
    "ಭಾಗೀರ": 3864,
    "ಮೃತದೇಹಗಳು": 4035,
    "ಸಾಂಕ್ರಾಮ": 4228,
    "ದಕ್ಷಿಣವನ್ನು": 4652,
    "ಬೇಕ": 816,
    "ಸಿನ": 3472,
    "ಜನೆಯಡಿ": 3615,
    "ಆಕ್ರ": 1870,
    "ೊಳಗೆ": 3263,
    "ಹೆಲಿಕಾಪ್ಟರ್‌ನಲ್ಲಿ": 4109,
    "ಕೊಳ್ಳ": 745,
    "ಬದಲಾಯಿಸಿಕೊಂಡಿದ್ದಾರೆ": 2584,
    "ಮಾರಿಗೆ": 3111,
    "ಪರಿಣಾಮಕಾರಿ": 4664,
    "ಮರಣ": 3112,
    "ಗಢ": 1470,
    "ರಾಜ್ಯಾದ್ಯಂತ": 2724,
    "ಹೃದಯಾಘಾತ": 1138,
    "ಪಿಜಿ": 3553,
    "ಿದನು": 3260,
    "ಸ್ಥರಿಂದ": 3669,
    "ಹೊಂದಿದ್ದು": 1736,
    "ಡುವಿ": 3010,
    "ಅಲ್ಲ": 2866,
    "ಕವಾಗಿದೆ": 2952,
    "ಎಂದ": 861,
    "ದಕ್ಷಿಣ": 1809,
    "ಲಕ್ಷ": 439,
    "ಬೈಲಕುಪ್ಪೆ": 2432,
    "‌ನಲ್ಲಿ": 569,
    "ವಿವರಗಳನ್ನು": 4420,
    "ವಡ": 1210,
    "ಬಿಟ್ಟ": 3526,
    "ಿಸಿದ್ದಾರೆ": 410,
    "ೌ": 124,
    "?\"": 2793,
    "ಏನೆ": 2930,
    "ದುರದ": 3454,
    "ರುಗಳಿ": 3285,
    "ಮಾರ": 3108,
    "ವರ್ಷ": 398,
    "ಯಾಚ": 740,
    "g": 55,
    "ar": 991,
    "ೀಪ್": 1549,
    "ದಾರುಣ": 3652,
    "ಬಹುಮಾನ": 3883,
    "ರಾಜ್ಯಕ್ಕೆ": 2251,
    "ಉದ್ಘಾಟಿಸಿದ್ದರು": 4057,
    "ಅದ": 2865,
    "ಮಹತ್ಯ": 755,
    "ನಿರ್ದೇಶನಾಲಯ": 1791,
    "ಹಿಂದೂ": 4430,
    "ಅಧಿಕಾರಿ": 961,
    "ಿದ್ದಿದ್ದಳು": 3347,
    "ಗಳನ್ನು": 191,
    "ದರ್ಶ": 963,
    "ಎರಡ": 418,
    "ನಿಲ್": 538,
    "ನೀಡ": 244,
    "ಕೆಲಸ": 754,
    "ಪೂರ್ಣಗೊಳ್ಳ": 4246,
    "‘": 130,
    "ವಾಸ": 1588,
    "ಬಾಗಲೂರು": 2583,
    "ಕೈಗಾರಿಕಾ": 2735,
    "ಪೋರ್": 4029,
    "ಪಿಸಿ": 1963,
    "ೈ": 169,
    "EMR": 2803,
    "ವಿಶ": 412,
    "ಎಫ್‌ಐಆರ್": 1802,
    "ಓದ": 2943,
    "ಡಿನ": 1064,
    "ರಿಕದಲ್ಲಿ": 4325,
    "ಚೆನ್ನೈನಲ್ಲಿ": 1796,
    "ಟಿಬೇ": 3521,
    "ಹಾಕಿದ್ದ": 4352,
    "m": 60,
    "ನಗರಾಭಿ": 2198,
    "ದಾಖಲಿಸಿರುವ": 4147,
    "ಮುಟ್ಟಿದೆ": 4760,
    "ಿಸಲಾಗುತ್ತದೆ": 2204,
    "ಅಬುಜ್‌ಮದ್": 2643,
    "ಲಕ್ಷಾಂತರ": 3885,
    "ಮಾದರಿಗಳಲ್ಲಿ": 4542,
    "ಪರಿಣಾಮಗಳಿಂದಾಗಿ": 4665,
    "ಲಮ್": 1996,
    "ಕುಸಿದುಬಿದ್ದಿದ್ದಳು": 4910,
    "ಸಭಾಭವನಗಳಲ್ಲಿ": 2490,
    "ಮುಖ": 284,
    "ಬಳ": 601,
    "ತೋರಿಸಿದರು": 4460,
    "ಆಕೆ": 1868,
    "ದಾಖ": 512,
    "ವಿವಾದ": 2089,
    "ಬಿಬಿಎಂಪಿ": 1140,
    "ೀದ್": 3290,
    "81": 1835,
    "ಲುತ್ತಿದ್ದಾರೆ": 3162,
    "ಚಿತ್ರ": 1602,
    "ಆಸ್ಪತ್ರೆಗಳೊಂದಿಗೆ": 2362,
    "ಅಧಿಕಾರಿಗಳ": 4250,
    "ಸವಾಲು": 2589,
    "800": 2791,
    "ಭಿ": 1504,
    "ಮನ": 304,
    "ನಡೆದಿದ್ದು": 2407,
    "ರ್ಶ": 2047,
    "ಗಳಿದೆ": 2053,
    "ಕೆಯನ್ನು": 947,
    "ಪಟ್ಟಿದ್ದು": 2373,
    "ಮಟ್ಟದಲ್ಲಿ": 4521,
    "ಮೆಟಾನ್ಯೂಮೊವೈರಸ್": 4785,
    "ನಾಲ್": 913,
    "ಬೈಲಕುಪ್ಪೆಯ": 4189,
    "ನಾಯಕಿ": 4081,
    "ಕಣ್ಣುಗಳನ್ನು": 4831,
    "ಮಾರ್ಗಗಳಲ್ಲಿ": 4345,
    "ಪಶ್ಚಿಮ": 1404,
    "ಅಳವಡಿಸಲಾಗಿದೆ": 1795,
    "ರ": 110,
    "ಹರಡಲ್ಲ": 2448,
    "ಜಯನಗರದ": 4692,
    "ಮೆಟಾಪ್ನ್ಯೂ": 4784,
    "ಅಭಿವೃದ್ಧಿಗೆ": 2470,
    "ಕೋಶ": 3580,
    "ಸಾಮರ್ಥ್ಯವನ್ನು": 4911,
    "ಬಲಿಯ": 1502,
    "ಕಾಶವಿದೆ": 3432,
    "ಹೊಸ್ತಿ": 3662,
    "ುವಾರಿ": 3464,
    "ಕರಣಗಳನ್ನು": 3686,
    "ತಡೆಯಲು": 2577,
    "ಅಮೆರಿಕದಲ್ಲಿ": 4950,
    "ಕಟ್ಟಿಕೊಳ್ಳ": 2573,
    "ಎನ್": 1156,
    "na": 1845,
    "ಗುಡಿ": 3629,
    "ಗೋ": 714,
    "ಅಂತರ್ಜಾಲ": 4372,
    "ಗೆಗೆ": 3322,
    "ಮಾರ್ಗಸೂಚಿ": 4346,
    "ಜಾರಿಯಾಗಿದೆ": 4694,
    "ಿಸಲ": 293,
    "ಶೌ": 3192,
    "ದ್ಧೀಕರಣ": 3777,
    "ಸೇವೆಯಲ್ಲಿ": 3768,
    "ಪ್ರಯೋಜನ": 4415,
    "ನಿಂದ": 391,
    "ಸಿಬ್ಬ": 574,
    "ಿದ್ದೆ": 1563,
    "ವರೆಗೆ": 502,
    "ಜನಸಂಖ್ಯೆಯ": 2602,
    "ತಮಿಳುನಾಡಿನ": 2627,
    "ಸಂಗತಿ": 3489,
    "ವ್ಯಕ್ತಿಗಳಲ್ಲಿ": 4589,
    "ನಡೆಸಿದ": 1663,
    "Z": 50,
    "ಹರಡುತ್ತಿದ್ದು": 4214,
    "ುತ್ತೇವೆ": 2099,
    "ಡಿತ": 3411,
    "ತ್ತಾಗಿ": 3314,
    "ಲಾದ್": 1288,
    "ಮಿಜೋ": 2203,
    "14ನೇ": 1364,
    "ಮದಾಬಾದ್": 1812,
    "ವ್ಯಕ್ತಪಡಿಸಿದರು": 4151,
    "ಂಸೆ": 2858,
    "ಮರಾ": 1203,
    "ರೋಡ್": 2156,
    "‌ಕ್ರ": 3257,
    "!": 4,
    "ಲ್ಲಿ": 156,
    "ಶಿಕ್ಷ": 750,
    "ಮಹ": 349,
    "ಬಂದರ್": 946,
    "ಕರ್ನಾಟಕ": 546,
    "ಲ್ಲೇ": 1552,
    "ಲಕ್ಷ್ಮಿ": 2286,
    "ವಿಪ": 2086,
    "rome": 2515,
    "ಸಿಕೊಳ್ಳಬೇಕು": 3224,
    "ಂಕೆಗಳು": 2863,
    "ನಿರ್ಣಾಯಕವಾಗಿವೆ": 1831,
    "ನದ": 1960,
    "ಶ್": 236,
    "ನೀಡುತ್ತಿದ್ದಾರೆ": 3624,
    "ನಡೆಯಲಿದೆ": 2320,
    "Cham": 4484,
    "ಋ": 79,
    "ನೀಯವಾಗಿದೆ": 3510,
    "ನ್ನೇ": 1554,
    "ಳಲಿದ್ದು": 3172,
    "ಪೂರ್ಣಗೊಳಿಸುವುದು": 4615,
    "ಕೋರ್ಟ್": 636,
    "ಏರೋ": 1888,
    "ಟೂ": 2996,
    "ಸಭಾ": 1042,
    "ಟ್ರ": 525,
    "ಬಟ್ಟ": 3090,
    "ಕಣ್ಣೀ": 2437,
    "ನಗರಗಳ": 3815,
    "‌ನ": 444,
    "SLR": 2825,
    "ವರ್ತನ": 3676,
    "ಬಾಡಿಗೆಗೆ": 3832,
    "ಆಕ್": 2884,
    "ಸಮಯ": 1043,
    "ಬೋಗಿ": 1120,
    "ದನೆ": 1182,
    "ಆಡಿಯೋ": 1874,
    "ಆನೆ": 2885,
    "ತ್": 134,
    "ಪ್ರತಿದ": 2074,
    "ಪ್ರಶ್ನಿಸಿದೆ": 4191,
    "ಘಾನಿಯಾ": 1097,
    "ಪೊಲೀಸರಿಗೆ": 3819,
    "ವಣೆ": 1212,
    "ನೇಮ್": 2224,
    "ರೂ": 311,
    "ಚ್ಚರಿಕೆ": 2498,
    "ಲೆಂಟ್": 3658,
    "ಬುಲೆಟ್": 1351,
    "ಗ್ಗ": 1646,
    "ವನ್ಯಜೀವಿಗಳಿವೆ": 4655,
    "ಸಿದ್ದರಾಮಯ್ಯ": 491,
    "ನೆಗೂ": 3492,
    "ಘಿಸಿ": 2975,
    "ಲ್ಲಾ": 3300,
    "ಕೋರ": 1613,
    "JM": 2811,
    "ಇತ್ಯ": 2901,
    "ನೂತನ": 1810,
    "ಿರುವಾಗ": 2422,
    "ರೈಲಿನಲ್ಲಿ": 1643,
    "ಸೂಚನೆ": 1766,
    "ರುವಾಗಿದೆ": 3600,
    "ಪ್ಲೆಟ್": 3638,
    "ಹಿಮಾಚಲ": 2176,
    "ಅಹ್": 2877,
    "ಗಂಟ": 2973,
    "ುವಿ": 802,
    "ಸೂಪರ್": 3834,
    "ಕಾರ್ಯನಿರ್ವಹಿಸುವುದು": 4235,
    "ಜಗತ್ತಿನಲ್ಲಿ": 4691,
    "ಿಸಲ್ಪಡ": 3306,
    "ನಿರತ": 2084,
    "15ನೇ": 2324,
    "ಅಡ್": 2870,
    "ನಾನು": 1262,
    "ಇದ್ದಲ್ಲಿ": 4066,
    "ರಸ್ತೆಗಿಳಿಯುವ": 3892,
    "ನಾಡಿನ": 2105,
    "Ne": 2816,
    "ರಿದ": 466,
    "ಸರ": 730,
    "ನ್ನ": 146,
    "ಪಟ್ಟಿ": 1496,
    "ದಿಸುತ್ತದೆ": 3037,
    "*": 10,
    "ದುಕೊಂಡ": 915,
    "ಆರೋ": 270,
    "ರಾಮಯ": 477,
    "ಮಕ್ಕಳಿಗೆ": 1100,
    "ಇದೆ": 1152,
    "ತೇಜಸ್ವಿನಿ": 1343,
    "ಪೈಲಟ್‌": 2673,
    "ಹೆಗ್ಗಡೆ": 2699,
    "ಿಸಲಾಗಿದ್ದು": 3710,
    "ಒತ್ತಾಯಪಡಿಸಿದ್ದ": 4867,
    "ಕದಡಲು": 4379,
    "ಸಮತೋ": 3973,
    "ಲ್ಕ್": 3270,
    "ಕ್ಟರ್": 1558,
    "ಕ್ರಮ": 762,
    "ಅಗತ್ಯವಿಲ್ಲ": 2556,
    "ತುರ್ತು": 2199,
    "ನೀಡುತ್ತಿರುವಾಗ": 2502,
    "ಇಂತಹ": 2905,
    "ಗಾತ್ರ": 2261,
    "ಕಾರಿಡಾರ್": 853,
    "ಪೂರೈಸಲು": 2620,
    "ಬಂಡ": 3089,
    "ಜಗ್ಗ": 2992,
    "ವೈಶಿಷ್ಠ": 3601,
    "ಟಿಯಾಗಿ": 2342,
    "ಸೌಲಭ್ಯಗಳನ್ನು": 1752,
    "ಿಸುತ್ತಿದ್ದೆ": 2216,
    "ನೀಡದ": 3622,
    "ಮಾನಿಸಿದರು": 4174,
    "ಸಹಾಯವಿಲ್ಲದೆ": 4802,
    "ಮರುಕೆಲಸ": 4300,
    "ಬೆಳೆಯುತ್ತಿದ್ದಾರೆ": 4828,
    "ಕೊಲೆ": 619,
    "ಆಕ್ಷೇಪ": 2479,
    "ಇಲ್‌ನೆಸ್": 4970,
    "ಪಕ್ಕ": 3067,
    "ಪ್ರಾರಂಭಿಸಲಿದೆ": 4322,
    "ತಾಯಿ": 1943,
    "ಬಯಸುವುದಿಲ್ಲ": 4517,
    "ು": 120,
    "ನಿರಾಕರಿಸಿದೆ": 4733,
    "ಪ್ರವಾಸಿಗರನ್ನು": 1714,
    "ನಡುವೆ": 1380,
    "ಹಿಕೆಯ": 3618,
    "Indi": 4932,
    "ಗ್ಯ": 316,
    "ಲಿನಿ": 1595,
    "ಸ್ಥಳಗಳಲ್ಲಿ": 3894,
    "ಕೆಎಸ್ಆರ್ಟಿಸಿ": 4878,
    "430": 1426,
    "ಡೌ": 3005,
    "ರೈಲ್ವೇಯಲ್ಲಿ": 4441,
    "ಹೇಳಲೇ": 3547,
    "ವಾಸಿ": 540,
    "ತಿಳಿಸಲು": 3755,
    "ಇಲ್ಲ": 858,
    "ಮೆಚ್ಚುಗೆ": 1421,
    "ಇರುವಾಗ": 4374,
    "ಟಿಡಿಎಲ್‌": 3525,
    "ಹಬ್ಬ": 2019,
    "ಕಾಂಗ್ರೆಸ್": 1139,
    "ಅರ್ಜಿದಾರರ": 2743,
    "ಹಲಕ್ಕೆ": 4076,
    "ಹೆಚ್ಚಳದಿಂದಾಗಿ": 4587,
    "ಮಧ್ಯಂತರ": 4172,
    "ಪವಿತ್ರಾ": 2582,
    "ಷ್": 242,
    "ತು": 286,
    "ವಹಿಸಲಿವೆ": 3811,
    "ಿಸಬೇಕಾಗುತ್ತದೆ": 3305,
    "ಮಧ್ಯರಾತ್ರಿಯಿಂದಲೇ": 4921,
    "ಗೌ": 359,
    "ಸ್ಪಷ್ಟನೆ": 2506,
    "ಬಸ್": 879,
    "Go": 1837,
    "ದಾಖಲಿಸಲು": 4143,
    "ಲಾಮಾ": 820,
    "ಶಕ್": 3196,
    "ಯುಗಕ್ಕೆ": 2603,
    "ಪಡಿಸಿಕೊಳ್ಳ": 3596,
    "ಹಾಗ": 731,
    "ತಾಣವಾಗಿದೆ": 2508,
    "ಸದ್ದು": 3222,
    "ಇರುವುದ": 2906,
    "ರೆದಿದೆ": 3481,
    "ಸಮ": 532,
    "ೆರಡ": 3250,
    "ಆಗಿರುವ": 4063,
    "ತಿಹಾ": 1251,
    "ಧಮ್ಕಿ": 2672,
    "ನಡೆಯಲು": 3951,
    "nate": 4669,
    "ಸಾವಿನ": 3559,
    "ೀಶ್": 2051,
    "ಕೆಳಮಟ್ಟಕ್ಕೆ": 2592,
    "ದೃಢಪಟ್ಟಿ": 4270,
    "ಯೋ": 296,
    "ಮಾಡುತ್ತದೆ": 1354,
    "ಬಳಿ": 3092,
    "ಸಿದ್ಧತೆಗಳನ್ನು": 4635,
    "ಅಂತೆಯೇ": 4371,
    "ನೀಡಿರುವ": 1350,
    "ಕುಡಿಯಲು": 4758,
    "ಸೂಚ": 1102,
    "ಶಿಲ್ಪಾ": 931,
    "ಮಾಡುತ್ತಿದ್ದೆ": 4088,
    "ದೃಢವಾದ": 4269,
    "ಭಾಯ": 3101,
    "ಚಾರ": 461,
    "ಿಸಿದ್ದರು": 898,
    "ೇವಾ": 2041,
    "ಮಂದಿ": 1981,
    "ವರ್ಷದಿಂದ": 3847,
    "ರಿಕೆ": 2075,
    "ಸಿಬ್ಬಂದಿಯನ್ನು": 2364,
    "ಮಾಡಿಕೊಂಡ": 3873,
    "ವಹಿಸಿದ್ದಾರೆ": 3809,
    "ನೌಕರ": 1136,
    "ಕ್ಕೀಡ": 1292,
    "ಂಭ": 356,
    "ಅಭಿವೃದ್ಧಿ": 1383,
    "ಗೋಪಿನಾಥನ್‌ನಿಂದ": 4607,
    "ಮಂಡಿಸಬೇಕಾಗುತ್ತದೆ": 3868,
    "ಭಾಷೆ": 957,
    "ಭಕ್ಷ್ಯಗಳಿಗಾಗಿ": 2677,
    "ರೂಪಾಯಿಯಷ್ಟು": 3923,
    "ಸಾರಿಗೆ": 661,
    "ಭಾರತ್": 830,
    "ಭವನದಲ್ಲಿ": 1730,
    "ಕರಾಗಿರುವ": 3518,
    "ಇತಿಹಾಸ": 1882,
    "ವೈರಸ್‌": 3837,
    "ಸಂಗ್ರಹಿಸಿದ್ದ": 4273,
    "ವಾತಾವರಣ": 4659,
    "ಹೊರಡ": 3661,
    "ಸಾಮಾನ್ಯ": 976,
    "್ಯ": 158,
    "ವಿದೇಶಿ": 2488,
    "ಗೋಕಾಕ್": 2390,
    "ಸ್ಥಳದಿಂದ": 3895,
    "ಕಟ್ಟಿಕೊಳ್ಳುವಿಕೆಗಾಗಿ": 4871,
    "ಭಕ್ಕಾಗಿ": 3102,
    "ಮಾಡಲು": 3567,
    "ಗ್ರಾಮವಾದ": 4387,
    "ಅಸ್ತಿತ್ವದಲ್ಲಿವೆ": 4885,
    "ಮಾಲೀಕರು": 4731,
    "ಮೈಸೂರು": 1121,
    "ದವನ್ನು": 3031,
    "ಹೋಗ": 968,
    "ತರು": 1940,
    "ಸಿದ್ದರು": 2237,
    "ಕಿಲೋಮೀಟರ್‌ಗಳ": 1361,
    "ಆಧಾರದ": 1385,
    "ಬೇಕಾಗುತ್ತದೆ": 1734,
    "ಟ್‌": 323,
    "ಕಣ್": 865,
    "ಶೀರ್ಷಿ": 4001,
    "ಋತು": 2922,
    "ೀಡ್": 2052,
    "ಮೂಲಗಳ": 3785,
    "ಉದ್ದೇಶವಾಗಿರಲಿಲ್ಲ": 4619,
    "ಹೈಸ್ಪೀಡ್": 4078,
    "ಬೇತಿ": 1610,
    "ಾಗಿದ್ದಾಗ": 2491,
    "ದಾಖಲಿಸಿಕೊಂಡು": 4149,
    "ಏಮ್ಸ್": 4990,
    "ಕಾಟೇ": 3429,
    "ಆದೇಶ": 1869,
    "ವಾಸಿಸುತ್ತಿದ್ದ": 4550,
    "ಆಗ": 553,
    "ಸ್ಗಢ": 3342,
    "ಔತಣವು": 4647,
    "ಶುದ್ಧೀಕರಣ": 4309,
    "ಮುಗಿಲು": 3537,
    "ಆದ್ದರಿಂದ": 2894,
    "ಶುರುವಾದ": 4307,
    "ಹು": 353,
    "Surya": 2561,
    "ಹಾಗೂ": 846,
    "ವಾಸವಾಗಿದ್ದಾರೆ": 4551,
    "ಪರೋ": 3065,
    "ಇದ್ದರು": 4065,
    "ಉದ್ದದ": 4286,
    "ಶತ್": 3193,
    "ಆತ್ಮಹತ್ಯೆ": 1362,
    "ಬ್ಯಾಂಕ್‌ನಲ್ಲಿ": 4874,
    "ರೈಲುಗಳ": 3960,
    "ಮೈ": 793,
    "ಅಳುತ್ತಿದ್ದಾರೆ": 2435,
    "ಮಗುವಿನ": 3999,
    "ನಿರ್ಣಾಯಕವಾಗಿ": 1790,
    "ಆರಂಭಿಸಿ": 4101,
    "ಏಕೈಕ": 4992,
    "ಸಭೆಗಳು": 1355,
    "ಕನ್ನಡದ": 2259,
    "ಕಾರ್ಯನಿರ್ವಹಿಸುತ್ತಿವೆ": 4239,
    "ಸಂಖ್ಯ": 919,
    "ಕೆಮ್ಮ": 3354,
    "9": 24,
    "ಪ್ರಹ್": 1243,
    "ಎರಡು": 629,
    "ಷ": 115,
    "ವಿಲ್ಲದೆ": 3395,
    "ಿಕೃಷ್ಣ": 2116,
    "ಪ್ರದೇಶದ": 1247,
    "ನಿರೀಕ್ಷ": 2083,
    "ಚ್ಚು": 1269,
    "ಡಬ್ಲ್ಯು": 1777,
    "ಫಿ": 3075,
    "ನಡೆಸಿದರು": 2606,
    "ಟಿಯ": 575,
    "ಷ್ಠ": 818,
    "ಣಿ": 1179,
    "26": 1425,
    "ಪ್ರೀಮಿಯಂ": 2401,
    "ಇಡೀ": 2649,
    "ಫಾ": 3074,
    "ಯನ್ನಾಗಿ": 3130,
    "ಆರ್ಡರ್": 3672,
    "ಸಿ": 194,
    "ಲಲ್ಲಿ": 3157,
    "ಪೂರೈಸಿದ": 2463,
    "ಮೋವೈರಸ್": 3806,
    "ೆಗೆ": 409,
    "ಲಿಯ": 920,
    "ಸರಬರಾಜು": 1720,
    "ಏಕಿ": 1889,
    "ಬೀರುತ್ತದೆ": 4166,
    "ಸಲ್ಲಿಸಿದ್ದು": 4213,
    "ಇಚ್ಛ": 2909,
    "ಡಲಾಗುತ್ತದೆ": 3011,
    "ಾಗಿದೆಯೇ": 3319,
    "ನಿವಾಸಿ": 3384,
    "ಮಹಿಳಾ": 1768,
    "ವಿರೋಧ": 2452,
    "ಸಭೆಯಲ್ಲಿ": 2300,
    "ಹೆಯ": 2018,
    "ಪರಿಸರ": 4165,
    "ೃಷ್ಟವಶಾ": 4532,
    "ಪೈಲಟ್‌ಗಳು": 4899,
    "ಚರ್ಚೆಗಳ": 4689,
    "ಚಾಲನೆ": 1751,
    "ಸಿಂಘಾನಿಯಾ": 1130,
    "ಶ್ರಮಿಸುವುದು": 4620,
    "ದನ": 1950,
    "ಸ್ಕೃ": 3341,
    "ಸಚಿ": 426,
    "ಪ್ರಕರಣದಲ್ಲಿ": 1091,
    "ತರ": 360,
    "ಬಾರದು": 2675,
    "ಇದೀಗ": 1344,
    "ಕೊಠಡಿ": 2173,
    "ನಿರ್ದೇಶ": 1306,
    "ಳಿಯುವ": 2269,
    "54": 2778,
    "ರಿಸುತ್ತದೆ": 3148,
    "ಎದು": 1456,
    "ಮಾಡಿದ್ದರೆ": 3571,
    "ವಾಹನಗಳು": 4553,
    "ದಶಕಗಳ": 4897,
    "ಕ್‌ನಲ್ಲಿ": 3332,
    "ಿಸಿರುವುದು": 3684,
    "ನಿಕಟ": 2379,
    "ಸಿಗಲಿದೆ": 3476,
    "ಾರಿಗೆ": 474,
    "ಪೂರೈಸ": 1748,
    "ಮೂಲಗಳಿಂದ": 2240,
    "ಮಂಜೂರು": 2268,
    "ನಕ್ಕೆ": 3052,
    "ನಗರಕ್ಕೆ": 3816,
    "ಮಹಿಳೆಯರ": 4359,
    "ನಮೋ": 1025,
    "ಿತಿ": 3238,
    "ಗಾಜಿಯಾಬಾದ್": 3828,
    "ಶೀಲರು": 4597,
    "ಪೊ": 348,
    "ನಿಂದಾಗಿ": 2266,
    "ಲನದ": 1997,
    "ಯವು": 3121,
    "ಲಿದ್ದು": 3158,
    "ಇನ್ನ": 2898,
    "ದಾಖಲಾಗಿದ್ದ": 4145,
    "ಬೆಂಗಳ": 281,
    "ನ್ಯಾಯಾಲಯ": 4407,
    "ನಿನಿಂದ": 3381,
    "ದೀ": 3029,
    "ಅನುಕೂ": 1702,
    "ರಿಸಂ": 3791,
    "ಸಮಯದ": 4314,
    "‌ಐಆರ್": 1539,
    "ಕೊ": 239,
    "ಮುಖ್ಯ": 370,
    "ಸುಕವಾಗಿದೆ": 3722,
    "ಎಂತಹ": 1886,
    "ಂಡರನ್ನು": 3507,
    "ಷ್ಟೇ": 3770,
    "ಕುರಿತು": 1378,
    "ಕದ": 1161,
    "ವ್ಯಾಪ್ತಿಯಿಂದ": 2405,
    "ನೊಂದಿಗೆ": 3056,
    "ವಾರ": 364,
    "ಶ್ಲಾ": 3598,
    "ಜಾಲಸಂಪರ್ಕ": 4792,
    "ನಾರಾಯ": 2485,
    "ಇಲಾ": 645,
    "ಪ್ರಚೋದನೆಯ": 4417,
    "ಚೇ": 2979,
    "ಉಲ್": 1155,
    "ಮಹಿಳೆ": 1718,
    "ಪೂರೈಕೆಯನ್ನು": 4245,
    "ಫಲಕಗಳನ್ನು": 4852,
    "ೋದರಿ": 3310,
    "ಅಡೆತಡೆಗಳು": 4865,
    "ಕಾರ್ಯಾಚ": 766,
    "ಅನುಷ್ಠ": 2368,
    "ಿವೆ": 1223,
    "ಳಗದಲ್ಲಿ": 3171,
    "ಮೌ": 1202,
    "ಿಸುತ್ತಿದ್ದಾರೆ": 3727,
    "ವದ": 3173,
    "ಅಧ್ಯಕ್ಷತೆಯಲ್ಲಿ": 2563,
    "ವುದಿಲ್ಲ": 3410,
    "MR": 1142,
    "ಹಾರ": 1045,
    "ವಿಷಯವು": 4419,
    "ದ್ದಿ": 1633,
    "ಶಾಲಾ": 1338,
    "ಅವರನ್ನು": 934,
    "ಯೋಜಿಸುತ್ತಿದ್ದೆ": 2304,
    "ತೊಡಗಿದ್ದ": 2579,
    "ಂತಿ": 2847,
    "136ಕ್ಕೂ": 4157,
    "ವಿರಬೇಕು": 2493,
    "4": 19,
    "ನ್ವಿ": 3280,
    "ಬಿಧುರಿಯವರ": 4021,
    "Pariv": 4939,
    "ಸ್ಥೆ": 825,
    "ಪೀಡಿತ": 3772,
    "ಸೇನೆ": 3766,
    "ನದಲ್ಲಿ": 3050,
    "ಧರ್ಮಗುರು": 2372,
    "ಅಂಶಗಳನ್ನು": 4261,
    "ಡರ್": 1931,
    "ಪಡೆದುಕೊಳ್ಳಬಹುದು": 4815,
    "ವಸ್ತ್ರಗಳನ್ನು": 3188,
    "ಸಲ್": 1526,
    "ಗಾಂಧಿ": 3826,
    "ನಡೆಸ": 1662,
    "ರುಣ": 3283,
    "ಂಸಾ": 2850,
    "ಹೆಮ್ಮೆ": 3513,
    "ಗಿನಿಂದ": 2192,
    "ಕ್ತ": 3327,
    "ನಿರ್ದೇಶಿಸಿ": 4444,
    "ದೃಢಪಡ": 2476,
    "ಆಸ್ಪತ್ರೆಗಳಿಗೆ": 2361,
    "ತಾಣ": 1092,
    "E": 32,
    "ಪ್ರಕಟಣೆ": 1787,
    "ರೀಕರಣ": 2277,
    "ಶಿಬಿರಕ್ಕೆ": 2553,
    "ಮಾರ್ಚ್‌": 4790,
    "ರ್ಥಕ್ಕಾಗಿ": 4122,
    "ಪರಿಸ್ಥಿತಿಯು": 4364,
    "ತಜ್ಞರ": 4510,
    "ಕಾರ್ಯಾಚರಣ": 1726,
    "ಪಯೋ": 3068,
    "ಸ್ಪ": 279,
    "ಾಗುತ್ತದೆ": 626,
    "ಧಿಸಲು": 3045,
    "​​.": 4533,
    "ಗಾಲಯ": 2262,
    "ದೆಹಲಿ": 447,
    "ಹರಡ": 887,
    "ಗತಿ": 1012,
    "ಗುಜರಾ": 748,
    "ಲ್ಪ": 3269,
    "ಬಯಸಿದೆ": 4516,
    "ಉತ್ಪಾದಿಸುತ್ತದೆ": 4628,
    "ಇರಲಿಲ್ಲ": 2911,
    "ಮೀರತ್": 929,
    "ಪೋಷ": 1700,
    "225": 1832,
    "ಮಧ್ಯ": 794,
    "ವ್ಯಕ್ತಪಡಿಸಿದ್ದಾರೆ": 1725,
    "ರೂಪಿಸುತ್ತಾರೆ": 3850,
    "ಆಕರ್ಷಕ": 4640,
    "ಕಾರಿ": 457,
    "ಪೋರ್‌": 2349,
    "ಟ್ರೈನ್": 3965,
    "ತಿಳಿಸ": 322,
    "ಮಾರು": 1058,
    "ಜಿಗ್": 2194,
    "ಕಾರಣಕ್ಕೂ": 4092,
    "ಲೆಯಲ್ಲಿ": 1034,
    "ಆಗಿರಲಿ": 4064,
    "ಹರಿವು": 4719,
    "ದಿಸಲು": 3036,
    "ಟ್ರಿಪ್‌": 3964,
    "ಎಚ್‌ಎಂಪಿ": 4455,
    "ಪಡೆಯಲು": 3949,
    "O": 41,
    "ಂಗೇ": 2857,
    "ವಾಗಲಿದೆ": 3942,
    "ಪ್ರಮುಖ": 671,
    "ಳ್": 308,
    "ಇತ್ತೀ": 859,
    "ತ್ರಿ": 388,
    "ಆಂಪ್ಲಿಫೈ": 4965,
    "ೀಕರ್": 3292,
    "ಆದ": 417,
    "ಮಾಡಿದವರ್ಯಾ": 3573,
    "ತಿಂಗಳಲ್ಲಿ": 2451,
    "ಮೆಕ್‌ಕ್ರ": 3773,
    "ರುವ": 237,
    "ಹಾಕಿ": 1677,
    "ವ್ಯಕ್ತಿ": 1685,
    "ತಿರಸ್": 3389,
    "ಸೇರಿವೆ": 4782,
    "ನಿಮ್ಮ": 3378,
    "ರೆಗೆ": 367,
    "ದರಿ": 1181,
    "ಹಾಕಿರುವ": 2608,
    "ಿಸುತ್ತಿವೆ": 3730,
    "ಿಸಿದರು": 668,
    "ನಾಯಕರ": 1707,
    "ಮಾಡುವ": 2164,
    "ವಾಳ": 3444,
    "ಗ್ಗೆ": 452,
    "ತಿಗಳನ್ನು": 2085,
    "ದಯಾಘಾತ": 1135,
    "ಸಮಾ": 1215,
    "ಮಿತ್ರ": 1637,
    "ಪ್ರತಿದಿನ": 2689,
    "ಕುರ್ಚಿ": 3534,
    "ಆಗಾಗ್ಗೆ": 3987,
    "ಏಕಾ": 1887,
    "ವ್ಯವಸ್ಥೆಗಳನ್ನು": 4624,
    "ಸಂಬಾ": 3483,
    "ILI": 4931,
    "ತಿಂಗಳ": 906,
    "ನಂಬರ್": 3058,
    "ಲ್ಪಾ": 892,
    "ಇರುವುದಿಲ್ಲ": 2651,
    "ಸೇರ್ಪಡೆಯ": 3769,
    "CD": 2800,
    "ತಂಡವಾಗಿ": 4295,
    "ವಿಮಾನ": 3396,
    "ಸಾಕಷ್ಟು": 3561,
    "ಮಧ್ಯಾಹ್": 2417,
    "ಮರುಬಳಕೆಯ": 4846,
    "ತನಿ": 653,
    "ಮೀಟರ್": 749,
    "22": 2768,
    "ವಾಲಯ": 573,
    "ಅತು": 1440,
    "ಕುಟು": 1604,
    "ನಗರದಿಂದ": 3817,
    "ಹೀಗೆ": 4406,
    "ಸಮಿತಿಯೇ": 4716,
    "ಹೊಂದ": 823,
    "IL": 2808,
    "ಕೊಲೆಯಾದ": 2708,
    "ರವಾ": 3142,
    "ಪರ್‌ಗಳು": 4028,
    "ಸ್ಥಾ": 2191,
    "ಹೋರಾಟ": 4038,
    "ಭಾ": 307,
    "jasv": 2562,
    "ಸಾರ್ವಜನಿಕರು": 4471,
    "ಅನೇ": 1859,
    "ತಾ": 317,
    "ಕ್ಯಾಂಟೀ": 4412,
    "ುವು": 341,
    "ಲಾ": 247,
    "ಘರ್": 1172,
    "ಬದಲಾವಣೆ": 1779,
    "ಬ್ಬರು": 753,
    "ಲಭ್ಯವಿ": 1349,
    "ಕಲಕುವ": 2571,
    "ಹೊ": 261,
    "ಎಂತಹವರ": 2656,
    "ಇತರ": 999,
    "ಧರ್ಮಸ್ಥಳದ": 2554,
    "ಗಳೊಂದಿ": 3298,
    "ಹೆಚ್ಚಿನ": 932,
    "ವಾತಾವರಣದ": 2631,
    "ಇಂಟೆಲಿಜೆನ್": 4161,
    "ೊಂದಿಗೆ": 416,
    "ಘಾಟ": 627,
    "ಡಿಗೆಗೆ": 3418,
    "ಮನೆಗಳಲ್ಲಿ": 4305,
    "ವುಗಳನ್ನು": 1580,
    "?": 27,
    "ಢ": 97,
    "ಬಾ": 384,
    "ಅನ್ನು": 711,
    "L": 38,
    "ಗೂ": 1170,
    "ಯೋಜನೆಗೆ": 2387,
    "ಮಿನ": 2200,
    "pri": 2840,
    "..": 2761,
    "ನೆಸ್": 2129,
    "ೆಗೊಳಿಸ": 3251,
    "ಗೇಟು": 3932,
    "ದುರ್ಗದ": 4328,
    "ಅಭಿಜಿತ್‌ನ": 4816,
    "ಹಡುವಿ": 3230,
    "ಇಲಾಖೆ": 971,
    "ಸಾಂಪ್ರದಾಯಿಕ": 1424,
    "ಭೇಟಿಯಲ್ಲಿ": 4466,
    "ುವುದಿಲ್ಲ": 3780,
    "ನಗದು": 1296,
    "ಒತ್ತ": 1461,
    "ತೋರಿಸುತ್ತದೆ": 4164,
    "ಡೇ": 1930,
    "ಕೂಟ": 4069,
    "ಕರ್ನಾಟಕದ": 2333,
    "ಆಫ್": 2890,
    "ಪ್ರಯೋಗಾಲಯಗಳ": 2747,
    "‌ಪೆ": 3258,
    "ಪ್ರತೀ": 2070,
    "ಅವಿರತ": 4675,
    "ನೆಲದ": 3493,
    "ಮಾಡಕೂಡ": 3570,
    "ಕೃತಿಗಳನ್ನು": 4381,
    "ಿಸುತ್ತಿರುವ": 3729,
    "ಸ್ಥಾಪಿಸಿ": 4772,
    "ಪರಾರಿಯಾಗಿದ್ದರು": 4844,
    "ಮೂಲಕ": 487,
    "ಿಸಲಿ": 1235,
    "ವಿಲ್ಲ": 1061,
    "ವಿಭಾಗದ": 2494,
    "ಮಂ": 405,
    "ಉಂಟು": 1883,
    "ಶ್ಯ": 3197,
    "ಆಮೆಗತಿ": 4963,
    "ನಾಥ": 1260,
    "ಆರ": 591,
    "ವೇಳೆ": 974,
    "ಯಂತಹ": 3128,
    "ಸಚಿವರ": 3870,
    "ಸ್ಪರ್ಶಿಸುವುದು": 4774,
    "ಟಿಕೆಟ್": 1600,
    "ರುತ್ತ": 733,
    "ರಾಜ್ಯವನ್ನಾಗಿ": 2252,
    "ಹೊರಹೊಮ್ಮ": 4178,
    "ದೂರವಿರಬೇಕು": 2612,
    "ಉನ್ನತ": 4496,
    "TC": 2827,
    "ವರದಿಗಳು": 4440,
    "್ಲಿಯ": 3254,
    "ಸಿದಾಗ": 3975,
    "ವಾಯು": 2111,
    "ಒಂದೇ": 2941,
    "ಸುಮಾರಿಗೆ": 3723,
    "ಮಕ್ಕಾಗಿ": 3808,
    "ಕಲ್ಪಿಸಲಿದ್ದು": 4244,
    "ನೀಡುತ್ತ": 1081,
    "ಮಗಾರಿ": 1509,
    "ವಿಭಾಗ": 1062,
    "ಕಾಣಿಸಿಕೊಳ್ಳುತ್ತಿದೆ": 4425,
    "ಉತ್ತ": 1001,
    "ಸಹಾಯ": 2314,
    "ಐದು": 1890,
    "ಭಾಗವಹಿಸುವರು": 4858,
    "ಲೆನಾ": 3657,
    "ವಿಸ್ತೀರ್ಣದ": 2746,
    "ಗೊಳ್ಳಬಹುದು": 4795,
    "ಪದ್ಯ": 3069,
    "ಇಂಡಿ": 1881,
    "ಬ್ರೌಸರ್‌ನಲ್ಲಿ": 4825,
    "ಹುಟ್ಟ": 1654,
    "ಸಂಬಂ": 3484,
    "ನೀರನ್ನು": 1599,
    "ಭಯಪಡುವಕರ್ನಾಟಕದಲ್ಲಿ": 4632,
    "ದಾಂತೇವಾಡ": 3653,
    "SSB": 2826,
    "ಆಮೆ": 2888,
    "ರುತಿ": 3284,
    "ುವುದರಿಂದ": 3781,
    "ಚಿನ್ನದ": 1709,
    "ಸಾಗಿದೆ": 3213,
    "ಕ್ಷ": 211,
    "ರಾಷ್ಟ್ರೀಯ": 4657,
    "25": 372,
    "(": 8,
    "ಹೃ": 1044,
    "ಭಾಗಕ್ಕೆ": 2273,
    "/": 14,
    "ಕುಡಿಯುವುದು": 4759,
    "ವಿಸ್ತರಣೆಯನ್ನು": 4856,
    "ಇನ್ನೇನು": 4973,
    "ತಿದ": 1939,
    "2025": 936,
    "ಉದ್ದ": 1002,
    "ಾದಲ್ಲಿ": 3232,
    "Scheme": 4941,
    "ಕ್ಷೇತ್ರದಲ್ಲಿ": 4256,
    "ಪಮಾನ": 3070,
    "ಮಾತನಾಡಿದ": 635,
    "ತನಿಖೆ": 1113,
    "ಪ್ತಿಯಿಂದ": 2183,
    "ಸ್ತ್ರಗಳನ್ನು": 2591,
    "ುತ್ತಿದೆಯೇ": 3436,
    "2022": 4089,
    "ಸಗಿ": 1216,
    "ಕರೆದೊ": 4288,
    "2024": 1114,
    "Supri": 4485,
    "ಫ್": 563,
    "ಮಾಡಿಕೊಳ್ಳಿ": 2545,
    "1901": 3928,
    "ತವನ್ನು": 3021,
    "ರತ್ತು": 3141,
    "ಬೈಲ": 791,
    "ಸೂಚನೆಗಳನ್ನು": 4625,
    "ಿಸಲಿದ್ದು": 1641,
    "ತನಿಖಾ": 4072,
    "ಪತ್ತೆಯಾಗಿದೆ": 2512,
    "ಾಯಿ": 355,
    "ಕೆಯ": 411,
    "ತೆಗೆದುಕೊಂಡು": 2733,
    "ರವ": 1986,
    "ವಾಹನಗಳಲ್ಲಿ": 4554,
    "ಆನೆಗಳು": 4960,
    "ವರೆ": 1522,
    "ಟಕ": 434,
    "ಕಾಣ": 1258,
    "ಇನ್ಫ್ಲುಯೆ": 2480,
    "ಮರುಬಳ": 2487,
    "ವಿಚಾರ": 571,
    "am": 2831,
    "ಲಿದೆ": 726,
    "ಇರುತ್ತದೆ": 1453,
    "ಧರ್ಮಸ್ಥಳದಲ್ಲೂ": 4468,
    "ಪ್ರಶಂಸ": 3363,
    "ವಾಗುತ್ತಲೇ": 4711,
    "ಸಿದ": 534,
    "ಶಂಕು": 3199,
    "ಬಾಯಿಯನ್ನು": 4398,
    "ವೃದ್ಧ": 583,
    "ಶಿಕ್ಷೆಯನ್ನು": 4134,
    "ಹಿತನ": 3619,
    "ಯತ್ನ": 1407,
    "ಯಾರಿ": 3123,
    "ಷಿತಗೊಂಡ": 4713,
    "ಡಿದೆ": 1933,
    "ಸಾರ್ವ": 1076,
    "ೊಂದಿ": 3262,
    "ಅಜ್ಜಿಪುರ": 4951,
    "ಬಹುದು": 952,
    "ಬ್ರಿ": 2394,
    "ವಸತಿ": 2681,
    "ಉತ್ತರ": 1386,
    "ಎಎಪಿ": 4987,
    "ಆಂಟಿವೈರಲ್": 2648,
    "ಅಸಹ್ಯಕರ": 4674,
    "ವೇಗ": 1095,
    "ಾಗಿದ್ದಾರೆ": 3317,
    "ಕುರಿತ": 2455,
    "ಮುಖ್ಯಮಂ": 489,
    "13": 774,
    "ಣೆಯ": 3013,
    "W": 47,
    "ಡಿಪೋ": 3414,
    "ನಿಂತಿದ್ದು": 4736,
    "ಇದನ್ನು": 2346,
    "ಇತ್ತೀಚಗೆ": 4612,
    "ಅದಾಗಲೇ": 4945,
    "ಸಾಗ": 1528,
    "ಮಾಚಲ": 2077,
    "ಲನಗೊ": 3165,
    "ಢೀರ": 3012,
    "ಪಡಿಸಿದ್ದ": 3595,
    "ಮೋದಿ": 519,
    "ನಲ್ಲ": 3049,
    "ಹೊಂದಿರುವ": 4436,
    "ತಿಳಿದುಬಂದಿದೆ": 1395,
    "‌ಗಳ": 890,
    "ವಂಚ": 796,
    "ುವಂತೆ": 678,
    "ಮಟ್ಟಕ್ಕೆ": 2586,
    "ನಿಯಂತ್ರಣ": 1817,
    "ಪಡೆಯುತ್ತಿದ್ದಾರೆ": 2318,
    "ತಂತ್ರಜ್ಞಾನ": 1369,
    "ಪಿಡಬ್ಲ್ಯು": 3554,
    "ಚಿನ್ನದಂಗಡಿ": 4603,
    "ಸಂಗ್ರಹಿಸಿ": 4271,
    "ಿಸಿದ್ದು": 1236,
    "ಿಕೊಂಡಿದ್ದಾರೆ": 2332,
    "ಂಡರ್ಡ್": 1597,
    "17": 2765,
    "ರೊಬೊ": 4402,
    "ವೇದಿಕೆಗೆ": 4787,
    "ತ್ತಿನಲ್ಲಿ": 4219,
    "ನಿರ್ಧರಿಸಲಾಗುತ್ತ": 4781,
    "ಅಂಶ": 970,
    "ರುತ": 2050,
    "ಖರ್ಚು": 1775,
    "ಕ್ಷೇತ್ರ": 966,
    "ನಿಗಾ": 3379,
    "ವ್ಯಕ್": 514,
    "ಸೂಕ್ಷ್ಮ": 2265,
    "ವಕೀಲರಿಗೆ": 4475,
    "ಶೆ": 3191,
    "ನವೀಕರಿಸಲಿದೆ": 2623,
    "03ಕ್ಕೆ": 4924,
    "ತಶಿ": 3024,
    "ಅಕ್ಕ": 2869,
    "ವು": 172,
    "ಸಿನೊ": 3475,
    "ಪ್ರಸ್ತುತ": 1412,
    "ಹಾರಿ": 3228,
    "ಮಾಡುತ್ತಿದ್ದಳು": 4087,
    "ತಿರುಗೇಟು": 4545,
    "ಆದಾಯದ": 4584,
    "ಪ್ರಕರಣಗಳು": 1648,
    "ಒಪ್ಪ": 1462,
    "ವಿಶ್ವದರ್ಜೆಯ": 4480,
    "ಬಾಯಿ": 1197,
    "ಪಡುವ": 1619,
    "ಸಂದರ್ಶಕರು": 4155,
    "ದೃಢಪಡಿಸಿವೆ": 4839,
    "ಹೆಚ್ಚಿಸುತ್ತಿದ್ದೇವೆ": 2322,
    "ಕತ್ತ": 1465,
    "ಗೆ": 152,
    "ಬಿಎಸ್": 2144,
    "ಸವಾಲುಗಳು": 4877,
    "ರುವ್": 2171,
    "8": 23,
    "ಬಹುದಾಗಿದೆ": 1325,
    "ಅಪ": 1856,
    "o": 62,
    "ಅನೇಕ": 2642,
    "ಚೀಫ್": 2442,
    "ಂಗ್ರ": 993,
    "ಆರೈ": 2887,
    "ವಾಗಿಲ್ಲ": 3705,
    "ವನ್ಯ": 1525,
    "ಜನನ": 3609,
    "ಗ್ರೇಟೆಸ್ಟ್": 3902,
    "ಕರಿಸಿದ": 3515,
    "ಟ": 94,
    "ಬಾಗ್": 4518,
    "ಂಕಾ": 2848,
    "ದೂರವಿಲ್ಲ": 4594,
    "ಪರಿಣಾಮ": 1828,
    "ಸುಳಿ": 3720,
    "ಆರನೇಯದ್ದ": 4023,
    "ಲಸಿ": 1994,
    "al": 1842,
    "ಬ್ಯಾ": 1501,
    "ಆಂದೋಲನದ": 2645,
    "ಸ್ವಲ್ಪ": 4316,
    "ಆದರೆ": 547,
    "ವೀರಪ್ಪನ್‌ನ": 2559,
    "ಿದಾಗ": 2036,
    "ಮಹಾನಗರದ": 4182,
    "ಸಾಹಿಬಾಬಾದ್‌ನಿಂದ": 4481,
    "ಬಯ": 1497,
    "ಕಡಿ": 1164,
    "ಮೂಲಸೌ": 2239,
    "ವಾಯುಪಡೆಗೆ": 4744,
    "ಇದಕ್ಕಿ": 4024,
    "ಗಿಲು": 1629,
    "ಭಾಷೆಯ": 958,
    "ಜೆಗೇ": 1615,
    "ಪಡ": 235,
    "ಕೈಗಾರಿ": 2400,
    "ದರ್ಶನ": 4255,
    "ಯಲ್ಲಿರುವ": 2264,
    "ಕೆಲವನ್ನು": 3775,
    "ಹೊಗೇನಕಲ್": 4339,
    "ಇದರರ್ಥ": 4681,
    "ಶೇ": 3194,
    "ತಃ": 3017,
    "ಕೂಡಲೇ": 4357,
    "ಅವರಂತಹ": 3695,
    "ಚಿತ್ರಹಿಂಸೆ": 4559,
    "ರಬಹುದು": 3151,
    "2026ರ": 4090,
    "ವಿರೋಧಿ": 1377,
    "ನ್ನೆಗೆ": 3308,
    "ಟಿಶ್ಯ": 3523,
    "ಕಂಡುಬಂದಿತ್ತು": 4851,
    "ವಣಗಳಿಗಾಗಿ": 4710,
    "ಮುಂದು": 1605,
    "ಅನುಸರಿಸಲು": 4062,
    "ಏಜೆನ್ಸಿಗಳೊಂದಿಗೆ": 4646,
    "ಅಜ್": 2872,
    "ಮೂಲ": 344,
    "ಹಲ": 663,
    "ಮೂವರು": 821,
    "ನಿರಾ": 2079,
    "ವಿವರವಾದ": 4421,
    "ಮಂಡಿಸಲಿದ್ದು": 3867,
    "Year": 4944,
    "ಣೀ": 1936,
    "ಸಂಗ್ರಹಿಸಿರುವ": 4275,
    "ಪ್ರವಾಸಿ": 614,
    "ಅಡ್ವಾನ್ಸ್": 4949,
    "ಜಾಲ": 2272,
    "ಬು": 657,
    "ಳ್ಳ": 309,
    "ಸಮರ್ಥ": 3972,
    "ಕೈ": 738,
    "ಜಲಪಾತ": 2665,
    "ಸಂ": 196,
    "ಸಂಪರ್ಕ": 852,
    "ಬ್ಯಾಂಕ್": 2585,
    "ತ್ತನ್ನು": 3313,
    "ನಂತರದ": 3994,
    "ಚಿತ್ರವನ್ನು": 4558,
    "ತಾಪಮಾನ": 3745,
    "ರುವುದನ್ನು": 1671,
    "ರೂಪಾಯಿ": 490,
    "ಲೂ": 1520,
    "ಪ್ರದೂ": 2071,
    "ಕ್ಷೇತ್ರದ": 2468,
    "ಲಭ್ಯವಿರುತ್ತವೆ": 4456,
    "ಹಬ್ಬದಲ್ಲಿ": 4722,
    "ವಾಹನ": 1590,
    "ತಮಿ": 1485,
    "ಯಾಡಿದೆ": 2115,
    "ಪರಂಪ": 4299,
    "ಕಣ್ಣೀರು": 4832,
    "ಶುಕ್ರವಾರ": 4310,
    "ರಾಜ್ಯದಲ್ಲಿ": 833,
    "ಾಭರಣ": 1533,
    "ಆಕ್ಷೇಪಣೆ": 4840,
    "ರೈ": 297,
    "ಗೊಳ್ಳ": 2297,
    "He": 2806,
    "ಕರವಸ್ತ್ರಗಳನ್ನು": 3519,
    "ಅವಿರತವಾಗಿ": 4676,
    "ಹೆಲಿಕಾಪ್ಟರ್‌ನಿಂದ": 4110,
    "ತಮ್ಮದೇ": 3880,
    "ತಮಿಳು": 1808,
    "ನಗ": 282,
    "ನಡುವೆಯೇ": 2456,
    "ದುಕೊ": 3452,
    "ಗ್ರಾಮಸ್ಥರನ್ನು": 4388,
    "ಸ್ಟ್ಯಾ": 1562,
    "ಕನ್ನಡಿಗರು": 3800,
    "ಗೌಡ": 400,
    "್ಗೆ": 3252,
    "ಪ್ಪ": 397,
    "ವಿಕೆ": 3391,
    "ಸಾವಿರ": 3557,
    "ವಶಾ": 3183,
    "ಆರೋಗ್ಯಕ್ಕೆ": 3821,
    "ಪೈಲಟ್‌ಗಳಿಗೆ": 4900,
    "ಾಗ್ಗೆ": 3321,
    "ಉದ್ಘಾಟನೆಯ": 2367,
    "ದೇ": 233,
    "203": 2220,
    "ನಿರೋ": 3376,
    "ಮುಖಂಡರನ್ನು": 3696,
    "ಸೇ": 328,
    "ಂಕ್": 1851,
    "ಸರ್ಕಾರವು": 2408,
    "ಕ್ಷಮೆಯಾಚನೆಗೆ": 4757,
    "ದ್ದು": 622,
    "ೇಷ": 1049,
    "ಕಾರ್ಯಾಚರಣೆಗೆ": 2511,
    "ಪರಿಹಾರ": 3995,
    "ಬಗೆ": 3086,
    "ಖರಿಗೆ": 1169,
    "ಸಿಬ್ಬಂದಿಯಿಂದ": 4054,
    "ವಳಿ": 1036,
    "ಬುವ": 1499,
    "್ರ": 147,
    "ರಸ್ತೆಗಳು": 2294,
    "ಲೇ": 351,
    "ಬಾಟಲಿ": 3830,
    "ನಿನ": 3373,
    "ಭರಣ": 1505,
    "ಬಿಂಬ": 1601,
    "ವೈರಸ್‌ನಿಂದ": 3839,
    "ಎಂದಿದೆ": 4195,
    "ಣಾಂತಿಕ": 4204,
    "‌ನನ್ನು": 3889,
    "me": 1434,
    "ಬೊಮ್ಮಸಂದ್ರ": 4706,
    "ಇನ್ಫ್ಲುಯೆನ್ಜಾ": 4923,
    "ಪ್ರವಾಸಿಗರಿಂದ": 4107,
    "ವಾಸಿಸುವವರೆ": 4552,
    "ವಿವರ": 1255,
    "ನೋಟ್ಸ್": 4821,
    "ಮಾಡಿದ್ದರು": 2165,
    "ಇಳಿದ": 1451,
    "ಧಾರ": 719,
    "7ಕ್ಕೆ": 2788,
    "ವಿನ": 1577,
    "ಎಎ": 2923,
    "ಬಜೆಟ್‌": 453,
    "ುತ್ತಿರುವ": 3435,
    "ಸಂಗತಿಯ": 3488,
    "ನೆನಪ": 3495,
    "ಧಿಕಾರಿ": 2279,
    "ಪೀಳಿಗೆ": 415,
    "ಡಿಸೆಂಬರ್": 2667,
    "ಒಂಟಿಯಾಗಿ": 2942,
    "ನಿರ್ಣಯಿಸುತ್ತ": 4443,
    "ತಿಯಿಂದ": 1642,
    "ನುವಾಗ": 4297,
    "ಸ್ಲೀ": 3337,
    "ಆಗಮಿಸಿದರು": 4252,
    "ಪ್ರಾರಂಭವಾಗುತ್ತ": 4323,
    "ಗೊಂಡಿದೆ": 4351,
    "ವಾಹನಗಳಿಗೆ": 4555,
    "ಬ್ರ": 721,
    "ಜಾಗ": 1174,
    "2025ರಿಂದ": 2458,
    "ಜಗತ್ತನ್ನು": 4690,
    "ಕ್ಷಿಪ್ರ": 4332,
    "ರಾಜಾಜಿನಗರ": 2710,
    "Shrinate": 4942,
    "ಲಿನ": 1070,
    "ಸಮಗ್ರ": 3971,
    "ಕಾಂಗ್ರೆಸ್‌": 4369,
    "ಾಗಿದೆ": 223,
    "ಕೆಎಸ್ಆರ್": 2593,
    "ಪೋಷಕರು": 2615,
    "ನಿರ್ವಹ": 691,
    "ಟಿಬೆಟಿಯನ್": 985,
    "ಮೀಸಲಾ": 3655,
    "ಸೌಲಭ್ಯವೂ": 4249,
    "ಪತಿಯನ್ನು": 3071,
    "ಬೋರ್ಡ್": 4167,
    "ಆರ್‌ಎಸ್‌ವಿ": 2742,
    "nagar": 4668,
    "ನುವ": 1023,
    "ವರು": 408,
    "ಸಲ್ಲಿಸಬೇಕು": 2447,
    "ರಿಯ": 1568,
    "ದಾಟಲಿದೆ": 3649,
    "ಬಜೆ": 375,
    "ನಮ್ಮ": 1024,
    "್": 125,
    "ಮಾರುಗಳ": 4326,
    "ಖರೀ": 2959,
    "ಇತ್ತೀಚಿನ": 1739,
    "ಮುನ್ನೆಚ್ಚರಿಕೆ": 2702,
    "್ರಾಮ": 1096,
    "ಎನ್ಕೌಂಟರ್": 2744,
    "ನಿಭಾಯ": 3388,
    "2025ಕ್ಕೆ": 4233,
    "ನಾರ": 1021,
    "ಸೀನುವಾಗ": 4527,
    "ಗಾರಿ": 1013,
    "1979": 3930,
    "ತಿಳಿಸಿದೆ": 829,
    "ಕಾರ್ಯನಿರ್ವಹ": 937,
    "ನರೇಂದ್ರ": 1189,
    "\":": 2757,
    "ಖರ್": 1168,
    "ಅರಣ್ಯವನ್ನು": 4268,
    "ಸಂಕೇ": 3486,
    "ರ್ತು": 2048,
    "ೖ": 127,
    "ಪ್ರಯೋ": 1242,
    "ಯಾಗ": 3118,
    "ನಿರೀಕ್ಷೆ": 4737,
    "ಲ್‌": 611,
    "ರಹ": 3137,
    "ಐವಿ": 2934,
    "ನಗರಾಭಿವೃದ್ಧಿಗೆ": 4916,
    "ಉತ್ಸುಕವಾಗಿದೆ": 4376,
    "ದಾತ್ಮಕ": 3651,
    "ಸಾಧಿಸಿದ": 3562,
    "ದೇವಾಲಯಕ್ಕೆ": 4564,
    "ಮನೆ": 1029,
    "ುಬ": 1224,
    "ರಲಿದೆ": 3149,
    "ಲೈಟ್": 4211,
    "ಬಾದ್": 757,
    "ದಿಂದ": 394,
    "ರಾಜ್ಯದ": 1656,
    "ನೀಡಿದಾಗ": 4230,
    "ಪ್‌ಲೈನ್": 4767,
    "ಸಿಸ್": 1217,
    "ಉಲ್ಬಣವಿಲ್ಲ": 4638,
    "ನಡೆಸಲ": 3842,
    "ಲೆ": 260,
    "ನ್ಹ": 3279,
    "ಸಂಸ್ಥೆ": 1265,
    "ಂಗಳ": 253,
    "ಫೆ": 1194,
    "ಐತಿಹಾಸಿಕ": 2660,
    "ರಗಳ": 3138,
    "ಿಸಿ": 273,
    "ತಿಳಿಸಲಾಗಿದೆ": 3756,
    "ಮೃತಪಟ್ಟಿ": 4034,
    "ಮನೆಯವರು": 4575,
    "ಪೊಲೀಸ್‌": 4139,
    "ಂತಿಸಲಾಗಿದೆ": 3459,
    "ಸಾಲಿನ": 1609,
    "ಗಂಭ": 1910,
    "ಸಂಪೂರ್ಣವಾಗಿ": 4751,
    "ಜನಸಂಖ್ಯೆಯಲ್ಲಿ": 4568,
    "ಉತ್ಪಾ": 1774,
    "ುವಿಕೆ": 2423,
    "ಜ": 92,
    "ಪಡಿಸಬೇಕು": 3597,
    "ಕುಸಿದುಬ": 2701,
    "ಚೋ": 871,
    "ಿಸುತ್ತದೆ": 623,
    "ಂತೆಯೇ": 3460,
    "ಆಗಿದೆ": 3985,
    "ಕೋಲ್ಕತ್ತ": 2168,
    "ವಾದಕ್ಕೆ": 3914,
    "ವಾಲ್": 2109,
    "ನಿಕಿತಾ": 1413,
    "ೊ": 133,
    "ಜವಾದ": 2991,
    "ವೃದ್ಧೆಯೊಬ್ಬ": 4017,
    "ಉಗು": 2915,
    "ಸ್ಥಳಗಳಿಂದ": 3896,
    "ಹೆಸರುಗಳನ್ನು": 4226,
    "ಥಮಿಕ": 2444,
    "V": 46,
    "ಯಲ್ಲಿ": 385,
    "ಗೌರವ": 3801,
    "ತೆಗೆದುಕೊಳ್ಳ": 4046,
    "ಸುದ್ದಿಗೋಷ್ಠ": 4574,
    "ಜವಾ": 2989,
    "ಉಂಟುಮಾಡುತ್ತದೆ": 2654,
    "ಚನೆಗೆ": 2981,
    "ವೆಯಲ್ಲಿ": 3182,
    "ಡೆತ್": 4027,
    "ಹುಟ್ಟುವ": 4578,
    "ಮರುಬಳಕೆ": 4845,
    "ಪ್ರಯಾಣಿಕ": 1341,
    "ಬೃಹ": 3098,
    "ವಿರಾ": 3392,
    "ಪ್ರಯೋಗದ": 4416,
    "ಕಾರ್ಯನಿರ್ವಹಿಸುವುದಿಲ್ಲ": 4237,
    "ಿಗೆಯಂತಹ": 3456,
    "ದಲ್ಲಿವೆ": 3463,
    "ಹೇಳಲಾಗುತ್ತದೆ": 3549,
    "ವಾಸ್ತ": 3448,
    "ಪ್ರತಿನಿತ್ಯ": 2429,
    "ಗ್ರಾಮದ": 4385,
    "ಿಸಿಕೊಳ್ಳಬೇಕು": 4408,
    "Google": 2754,
    "HM": 639,
    "ಸಭೆ": 699,
    "ಉದ್ಘಾಟಿಸಿದ್ದಾರೆ": 4056,
    "6": 21,
    "ತರಗತಿ": 2248,
    "2ನೇ": 2770,
    "IE": 2807,
    "್ಥ": 889,
    "ಮಾವೋ": 3371,
    "BMTC": 4926,
    "ಗ್ರಾಂ": 1472,
    "ವ": 113,
    "ೋಗವನ್ನು": 3312,
    "ಅವನಿಗೆ": 3442,
    "ಖ": 87,
    "ಪೂರ್ಣಗೊಳಿಸ": 1749,
    "ಶಿಬಿ": 824,
    "ರಾಟ": 811,
    "ಸಂಪೂರ್ಣ": 2127,
    "ರಿದ್ದು": 3144,
    "ತಂದ": 716,
    "ಜಿಕ": 1477,
    "ಗೆಳತಿ": 3324,
    ";": 26,
    "ಜನವರಿ": 747,
    "ಕಾಪ್": 675,
    "RT": 777,
    "ಸೂಚನಾ": 4349,
    "ಇ": 75,
    "ಆಸ್ಪತ್ರೆಯಲ್ಲಿ": 1123,
    "ತಂತ್ರ": 843,
    "ನೀಡಿದ್ದಾರೆ": 819,
    "ಐಎಲ್": 2936,
    "ಸ್ವಯಂ": 1762,
    "ನೆಗಡಿಯ": 3494,
    "ಿಗೆ": 186,
    "B": 29,
    "ಶೋ": 440,
    "ವಿಷ": 1253,
    "ದಟ್ಟಣೆ": 2670,
    "ಹರಿಸಲು": 3229,
    "ರಿಸಿದೆ": 3792,
    "ಹೊಂದಿರುತ್ತದೆ": 4438,
    "ಸವಾಲುಗಳನ್ನು": 4876,
    "ಹೇಳಿದನು": 3550,
    "ಉತ್ಪಾದನ": 4627,
    "ಫೈ": 3076,
    "ನಾವ": 2101,
    "ಕಾರ್ಯಕ್ರಮದಲ್ಲಿ": 2459,
    "ಂಗಳು": 1144,
    "180": 4279,
    "ವಿವಾದವಾಗುತ್ತಲೇ": 4742,
    "ಸಹವರ್ತಿಗಳನ್ನು": 3945,
    "ನೆಟ್‌": 3491,
    "ಜನರೇಶನ್": 4133,
    "ವಂದೇ": 2007,
    "ಚಾಲ": 959,
    "ಆವರ": 2886,
    "ಡಳಿ": 3009,
    "ದೇಶ": 431,
    "ವಿಶ್ರಾಂತಿ": 710,
    "ಹೆಸರಿನಲ್ಲಿದೆ": 2548,
    "ನಿಮಗೆ": 3386,
    "ವರ್ಯಾ": 688,
    "te": 2841,
    "ತಿರುಪತಿ": 2594,
    "ಗೆತ್ತಿಕೊಂಡ": 3326,
    "ಳಿಸ": 278,
    "ಹೊತ್ತಿರುವ": 3663,
    "ಹುಂಡೇಕರ": 3795,
    "ಾಂತರ": 2024,
    "ತಂಗಿ": 3991,
    "ಮಾಡಬೇಡಿ": 3569,
    "ತಿಳಿದಿದ್ದೇವೆ": 4223,
    "<unk>": 1,
    "ಕೆಯಾಗಿದೆ": 1667,
    "ಕ್ಕೀಡಾಗಿದ್ದಾರೆ": 4433,
    "ರಿಕ": 1057,
    "ಪೂರೈ": 955,
    "ಹೇಗೆ": 2419,
    "ಆಳ": 2882,
    "ದರದ": 3698,
    "ಾರ": 143,
    "ಇಷ್ಟ": 1878,
    "ಖಟ್ಟರ್": 1134,
    "ಜಾ": 420,
    "ಭಾರಿ": 1975,
    "ಇರುವಂತಹ": 4375,
    "ಆರೈಕೆ": 4962,
    "19": 493,
    "ಸೇರಿದ": 518,
    "ವಾದಷ್ಟು": 3915,
    "ತಿಂಗಳಿಗೆ": 4222,
    "ಶಾಪ್": 3968,
    "ಸ್ನಾ": 3335,
    "ಹ್": 798,
    "ಭಾಗದಿಂದ": 2274,
    "ಕಾಂಗ್ರ": 1065,
    "ಗಳಿಂದ": 1327,
    "ರಹಿ": 1516,
    "ಆಧುನಿಕ": 1875,
    "ಆಸ್ಪ": 345,
    "ಸಾವನ್ನ": 3560,
    "ಳ್ಯ": 3167,
    "ದ್ರ": 1180,
    "ರಿಟ್ಟ": 3366,
    "ಮಾಡುತ್ತ": 686,
    "ಿಲ್ಲದ": 4725,
    "ಿಕೊಳ್ಳಬೇಕು": 2323,
    "ಬಂಧಿಸಲಾಗಿತ್ತು": 4051,
    "ಿಸುವುದು": 899,
    "ಮನೋಭಾವದ": 4442,
    "ಶ್ರಮವಹಿಸಿದ್ದಾರೆ": 4621,
    "ತಗುಲಿದ": 4699,
    "ಬೋ": 790,
    "ಯೋಜನೆ": 701,
    "ಜೆಡಿ": 3586,
    "ವರ್ಲ್ಡ್": 3677,
    "ನಡೆಸಿ": 3841,
    "ನಿಲ್ದಾಣದಲ್ಲಿ": 4018,
    "ಆಕ್ಷೇ": 995,
    "ಮ್ಮು": 1281,
    "ಗೋತ್ತಾಗಿ": 4113,
    "Sh": 2823,
    "ಪಡೆದಿರುವುದಾಗಿ": 4013,
    "ಸಂಗ್ರಹಿಸಲಿದ್ದಾರೆ": 4274,
    "ರೀಕ್ಷ": 948,
    "ಆಗಮಿಸಿದ್ದು": 4253,
    "ದರ್ಶನ್‌ಗೆ": 4837,
    "ದಿಢೀರ": 3470,
    "ಶಾಂತಿ": 3970,
    "ಕಾರಣ": 690,
    "ಸುಲ್ತಾ": 2213,
    "ದಿಯಲ್ಲಿ": 1264,
    "ನಿಮ್": 2081,
    "ಹರೀಶ್": 1410,
    "ಭಾಷಾ": 3922,
    "ಸೃಷ್ಟಿಸುತ್ತದೆ": 4718,
    "ಜೆ": 232,
    "ಉಪ": 2914,
    "್ಕೆಯ": 3253,
    "ಚಿಕಿತ್ಸೆಯಲ್ಲಿ": 3982,
    "ತ್ಮಕ": 3264,
    "ಪ್ರವೃತ್ತಿಯನ್ನು": 2688,
    "ಸನ್": 3208,
    "ಡಬ್": 1177,
    "ಪೇ": 3061,
    "ರಬೇಕು": 3147,
    "ನ್ಯಾಯಮೂರ್ತಿ": 1830,
    "ಮಗುರು": 2338,
    "ಪ್‌": 2182,
    "ಕುಳಿ": 3533,
    "ಅದರಲ್ಲಿ": 2478,
    "ಮಾಜಿ": 1571,
    "ಯೋಜನೆಗಳನ್ನು": 1712,
    "ತೆಯನ್ನು": 1946,
    "ನಿಗಮ": 3385,
    "ಕಾರ್ಯ": 324,
    "ಎಂಪಿವಿ": 630,
    "ಭಾಗಿ": 3100,
    "ಷಿಸಿದ್ದಾರೆ": 3204,
    "ತೋರಿಸಬೇಕು": 2551,
    "200": 3736,
    "ಮವಾರ": 658,
    "ೆಂಬರ್": 2031,
    "ಡಿಎಂ": 3413,
    "ಮಂಡನೆಗೆ": 2276,
    "ಮನವಿ": 624,
    "ಭಾನುವಾರ": 1420,
    "ಐಟಿ": 1892,
    "ಲೇಔಟ್‌ನಿಂದ": 2722,
    "ನಿಂತು": 4735,
    "ವ್ಯವಸ್ಥಿತ": 4849,
    "ಂನಲ್ಲಿ": 1853,
    "ಪೋ": 600,
    "ತರಹದ": 2249,
    "199": 2309,
    "ೇಟೆಸ್ಟ್": 3268,
    "ಆರಂಭದಿಂದ": 4103,
    "ನೀವು": 2135,
    "ಭಾಷೆಯಾಗಬೇಕು": 2466,
    "ಅನುಕೂಲ": 1829,
    "196": 2308,
    "ಮಾಧ್ಯ": 1572,
    "80": 1427,
    "ಮಾಡಬಾರದು": 3572,
    "ಕ್ಷಮ": 2146,
    "ಹೆಚ್ಚಳ": 1683,
    "ಬಿಬಿ": 1072,
    "ಿರುವುದು": 2028,
    "ತೇಜಸ್ವಿನಿಯನ್ನು": 4454,
    "ಇಲಾಖೆಯ": 4601,
    "ುತ್ತದೆ": 2098,
    "ೆಂದು": 3249,
    "ಮೊ": 529,
    "ನ್ಯೂ": 758,
    "ಕ್ಯಾ": 1239,
    "ರೂಪಿಸುವು": 3848,
    "ಕಟ": 1160,
    "ಂದ್ರ": 473,
    "ಹೀ": 1220,
    "ಕಲೆ": 1903,
    "ನಿಯಂತ್ರಣದಲ್ಲಿ": 2630,
    "ಂಪೊ": 2852,
    "ಬಾಕಿ": 3829,
    "RTC": 1118,
    "ದಿಷ್ಟ": 2120,
    "ಕುಡಿ": 2150,
    "ಆಸ್ಪತ್ರೆಗಳ": 2358,
    "1981": 3927,
    "00": 987,
    "ಿಸುತ್ತಿದ್ದೇವೆ": 2215,
    "ಸ್ತ್ರ": 1561,
    "ಸ್ಥಿತಿಯ": 1087,
    "ವ್ಯಾಪಕ": 4458,
    "ಬದಲಾವಣೆಗಳಾಗಿದ್ದು": 4631,
    "ಏರ್": 1004,
    "ಮಾಹಿ": 1059,
    "ಅಥವಾ": 587,
    "ಬಾರಿಗೆ": 1973,
    "ಲ್ಲದೆ": 804,
    "ಗಾಳ": 2260,
    "ಅವಹೇಳ": 3439,
    "ಜಮ್ಮು": 1924,
    "ಲಭ್ಯ": 606,
    "ಟೋ": 2998,
    "ಉಲ್ಬಣಕ್ಕೆ": 4636,
    "ದೇವಾಲಯ": 1616,
    "ಸುಧಾರಿಸಲು": 2717,
    "ತೀ": 462,
    "ವ್": 728,
    "ನಂದ": 3048,
    "ಇದ್ದಾರೆ": 4067,
    "ಹಾ": 471,
    "ಟಿಸಿ": 782,
    "ಡಿಯೋ": 911,
    "ಹರಡುತ್ತದೆ": 4215,
    "ಇಟ್ಟಿದ್ದಾರೆ": 4493,
    "ಂಗ": 2842,
    "ಹೆಚ್ಚಳವನ್ನು": 4585,
    "ಔತ": 1463,
    "ರಾಜ": 263,
    "ನಾಲ್ವರು": 1745,
    "ಮಾಡಬೇಕು": 3568,
    "ರಾಜಕಾರಣ": 1626,
    "ಯಾಲಯ": 3450,
    "ವಿಶಾಲವಾದ": 4583,
    "ಬಂದರ್‌ನಲ್ಲಿ": 2462,
    "ದೇಶ್": 3589,
    "ಯೋಜ": 482,
    "ಸಭೆಗಳನ್ನು": 2385,
    "ದೃ": 877,
    "ದರಿಂದ": 3035,
    "ಿಸಿದ್ದವು": 4173,
    "ಷಣೆ": 3203,
    "72": 2786,
    "ಪ್ರಶ್ನ": 851,
    "ದಾಪು": 3648,
    "ಆರ್ಟಿಫಿ": 3673,
    "ಕಂಡುಬ": 2525,
    "ನೋಡಲ್": 4116,
    "ಲಿಷ್": 3499,
    "ಮೋನಿಯಾ": 3807,
    "ಮಾತನಾಡ": 506,
    "ಮೃತ": 603,
    "ಅಸಾಮಾನ್ಯ": 1443,
    "ತೊಂದರೆ": 2668,
    "ವ್ಯಕ್ತಿವಾದಕ್ಕೆ": 4591,
    "ತೇಜಸ್ವಿ": 586,
    "್ಮ": 1226,
    "ನಿಲ್ದಾಣದಿಂದ": 1699,
    "ಕುಸಿತ": 2152,
    "ಶಿಕ್ಷಕಿಗೆ": 4135,
    "ಅರಣ್ಯದಲ್ಲಿ": 2475,
    "ಸಂದ್ರ": 3220,
    "ಸಾರ್ವಜನಿಕ": 1397,
    "16": 854,
    "IDS": 2810,
    "ಹಾಕಿದ್ದನ್ನು": 4356,
    "ಲೀಟರ್": 2228,
    "ಆಲ್ಫಾ": 4958,
    "ಕಾರ್ಯವೈಖರಿಗೆ": 1307,
    "ಹೆಚ್ಚಾಗಿ": 3957,
    "ವಿರುದ್ಧ": 909,
    "ಿಕೊಳ್ಳುವುದರಿಂದ": 3963,
    "ಪ್ರಾರಂಭಿಸುವ": 4321,
    "ಔಷ": 2945,
    "ರದ್ದುಗೊಳಿಸಲು": 4826,
    "KKRTC": 2812,
    "ಿಸುವುದಕ್ಕೆ": 1742,
    "ಖಚಿತಪಡಿಸಿಕೊಳ್ಳುವುದು": 4893,
    "ಸುಪ್ರೀಂ": 986,
    "ತೊಂದ": 1944,
    "ಸೂಕ್ಷ್ಮವಾಗಿ": 2725,
    "ಗಳಿಗೂ": 3890,
    "ವನ್ನು": 251,
    "ಂಡೇಕರ": 3509,
    "ಂದು": 168,
    "ದಾಯ": 1185,
    "ಟಿಕ್ಸ್": 3524,
    "5ರ": 2780,
    "ದವರ": 3032,
    "ಉದ": 2913,
    "ಕಟ್ಟ": 1469,
    "ಮೇಲ್ದರ್ಜೆಗೇ": 1826,
    "ಗಾದರೂ": 1661,
    "ನಗರದ": 1314,
    "ಪ್ರಕರಣದ": 2221,
    "ಎರಡೂ": 2270,
    "ದೃಢಪಡಿಸಿದ್ದಾರೆ": 4838,
    "ವಾಕ್ಸಮ": 3449,
    "</s>": 3,
    "ೊಂದು": 891,
    "ವಾಗಬಹುದಾದ್ದರಿಂದ": 2313,
    "heme": 2837,
    "ಜಿಯ": 1631,
    "ಲಿರುವುದು": 3502,
    "M": 39,
    "ಳಿಸುವ": 3691,
    "ಎಂದರೇನು": 4197,
    "ಮಾಡಿದ್ದಾರೆ": 925,
    "ಪ್ರಕಟಣೆಗಳು": 4634,
    "ನಗರಾಭಿವೃದ್ಧಿ": 4915,
    "ೀಯ": 305,
    "ಿಸಲಿವೆ": 1785,
    "ೂಮನ್": 2590,
    "Ye": 2830,
    ")": 9,
    "G": 33,
    "ಗ": 88,
    "ಸದರ": 1041,
    "ರೊ": 1206,
    "ವರಿಂದ": 2005,
    "ವಾದಿ": 3445,
    "ಹೆಸರಿನಲ್ಲಿ": 4129,
    "ಲೈನ್": 4209,
    "ಶ್ರೀ": 4311,
    "ವಾರ್ಡ್‌ನ": 2695,
    "ಜರಾ": 715,
    "ಇದುವರೆಗೆ": 3878,
    "ಾರರಾಗಬೇಡಿ": 4535,
    "ದೃಢಪಟ್ಟಿದ್ದು": 2477,
    "ವಿಧಾ": 2088,
    "ಅಧಿಕಾರಿಗಳೊಂದಿಗೆ": 4251,
    "ಬಗಿನ": 3097,
    "ಟರ್ಮಿನ": 3697,
    "ಆದ್ದರಿಂದಲೇ": 4964,
    "ೇದನ": 3267,
    "ರವರೆಗೆ": 1990,
    "ಖರ್ಚಿನ": 4384,
    "ಗಳಿಗೆ": 390,
    "ಆಂದ": 1867,
    "ಡ": 96,
    "ವರ": 268,
    "ಫೆಬ್ರವರಿ": 1405,
    "ತಂ": 558,
    "ಂಡರ್": 3506,
    "ಧರ್ಮಶಾಲಾ": 2472,
    "ಕರೆಯಬಹುದು": 4753,
    "ಟರ್": 285,
    "ಮೇ": 290,
    "ಈಗ": 593,
    "ತರವಾದ": 3803,
    "ಗಳು": 197,
    "ದವರೆಗೆ": 1956,
    "ವಿದೆ": 3179,
    "ರೆಮೃತ": 3479,
    "ವಾರು": 2110,
    "ಗುಂಡಿನ": 1418,
    "ವರ್ಷಗಳವರೆಗೆ": 4582,
    "ಪರಿಷ್ಕೃತ": 2613,
    "ಹಣವನ್ನು": 2375,
    "ಷಗಳಿ": 3205,
    "ವ್ಯ": 291,
    "ವೈದ್ಯಕೀಯ": 632,
    "ಸೋಮವಾರ": 700,
    "ಬೆಳ": 743,
    "ಜನರೇ": 746,
    "ಜಂಟಿ": 1479,
    "ಒಡ": 1896,
    "ಮಡಿ": 1978,
    "ಸಂಕೀ": 2126,
    "ಸಿಂಡಿ": 3473,
    "ವಿಹಾರ": 2090,
    "ಗಳನ್ನೂ": 3294,
    "ವಿನಂತಿಸಲಾಗಿದೆ": 4546,
    "ೇವೆ": 570,
    "ಬ್": 272,
    "ಅರಣ್ಯದ": 4267,
    "ಕೊಡುಗೆ": 2707,
    "ಒಳಗಿನಿಂದ": 2521,
    "ಆಗಿತ್ತು": 1111,
    "ಣೆಗೆ": 2218,
    "ಷಿ": 2010,
    "ನಕ್ಸಲರು": 2473,
    "ಸಂಗ್ರಹಿಸಲಾಗಿದೆಯೇ": 4276,
    "ಸಾಫ್": 3556,
    "ಲಿಸಿದ": 3160,
    "ಲಲ್ಲೇ": 3163,
    "7ರಂದು": 2789,
    "ದನೆಯ": 3038
}